{
  "activation_encodings": {
    "backbone.res2.0.conv1": {
      "input": {
        "0": {
          "bitwidth": 8,
          "dtype": "uint",
          "is_symmetric": "True",
          "max": 2.1879051234573126,
          "min": -2.2051327228546143,
          "offset": -128,
          "scale": 0.017227599397301674
        }
      },
      "output": {
        "0": {
          "bitwidth": 8,
          "dtype": "uint",
          "is_symmetric": "True",
          "max": 2.2259421348571777,
          "min": -2.24346923828125,
          "offset": -128,
          "scale": 0.017527103424072266
        }
      }
    },
    "backbone.res2.0.conv2": {
      "input": {
        "0": {
          "bitwidth": 8,
          "dtype": "uint",
          "is_symmetric": "True",
          "max": 3.3274863678961992,
          "min": -3.353687047958374,
          "offset": -128,
          "scale": 0.026200680062174797
        }
      },
      "output": {
        "0": {
          "bitwidth": 8,
          "dtype": "uint",
          "is_symmetric": "True",
          "max": 1.5202455157414079,
          "min": -1.53221595287323,
          "offset": -128,
          "scale": 0.01197043713182211
        }
      }
    },
    "backbone.res2.0.conv3": {
      "input": {
        "0": {
          "bitwidth": 8,
          "dtype": "uint",
          "is_symmetric": "True",
          "max": 3.3274863678961992,
          "min": -3.353687047958374,
          "offset": -128,
          "scale": 0.026200680062174797
        }
      },
      "output": {
        "0": {
          "bitwidth": 8,
          "dtype": "uint",
          "is_symmetric": "True",
          "max": 2.297347489744425,
          "min": -2.315436840057373,
          "offset": -128,
          "scale": 0.018089350312948227
        }
      }
    },
    "backbone.res2.0.shortcut": {
      "input": {
        "0": {
          "bitwidth": 8,
          "dtype": "uint",
          "is_symmetric": "True",
          "max": 2.1879051234573126,
          "min": -2.2051327228546143,
          "offset": -128,
          "scale": 0.017227599397301674
        }
      },
      "output": {
        "0": {
          "bitwidth": 8,
          "dtype": "uint",
          "is_symmetric": "True",
          "max": 2.583698447793722,
          "min": -2.6040425300598145,
          "offset": -128,
          "scale": 0.0203440822660923
        }
      }
    },
    "backbone.res2.1.conv1": {
      "input": {
        "0": {
          "bitwidth": 8,
          "dtype": "uint",
          "is_symmetric": "True",
          "max": 3.3274863678961992,
          "min": -3.353687047958374,
          "offset": -128,
          "scale": 0.026200680062174797
        }
      },
      "output": {
        "0": {
          "bitwidth": 8,
          "dtype": "uint",
          "is_symmetric": "True",
          "max": 1.9552472764626145,
          "min": -1.9706429243087769,
          "offset": -128,
          "scale": 0.01539564784616232
        }
      }
    },
    "backbone.res2.1.conv2": {
      "input": {
        "0": {
          "bitwidth": 8,
          "dtype": "uint",
          "is_symmetric": "True",
          "max": 3.786297956481576,
          "min": -3.8161113262176514,
          "offset": -128,
          "scale": 0.0298133697360754
        }
      },
      "output": {
        "0": {
          "bitwidth": 8,
          "dtype": "uint",
          "is_symmetric": "True",
          "max": 1.8021913291886449,
          "min": -1.816381812095642,
          "offset": -128,
          "scale": 0.014190482906997204
        }
      }
    },
    "backbone.res2.1.conv3": {
      "input": {
        "0": {
          "bitwidth": 8,
          "dtype": "uint",
          "is_symmetric": "True",
          "max": 3.786297956481576,
          "min": -3.8161113262176514,
          "offset": -128,
          "scale": 0.0298133697360754
        }
      },
      "output": {
        "0": {
          "bitwidth": 8,
          "dtype": "uint",
          "is_symmetric": "True",
          "max": 3.0338383689522743,
          "min": -3.0577268600463867,
          "offset": -128,
          "scale": 0.023888491094112396
        }
      }
    },
    "backbone.res2.2.conv1": {
      "input": {
        "0": {
          "bitwidth": 8,
          "dtype": "uint",
          "is_symmetric": "True",
          "max": 3.786297956481576,
          "min": -3.8161113262176514,
          "offset": -128,
          "scale": 0.0298133697360754
        }
      },
      "output": {
        "0": {
          "bitwidth": 8,
          "dtype": "uint",
          "is_symmetric": "True",
          "max": 1.547305858694017,
          "min": -1.559489369392395,
          "offset": -128,
          "scale": 0.012183510698378086
        }
      }
    },
    "backbone.res2.2.conv2": {
      "input": {
        "0": {
          "bitwidth": 8,
          "dtype": "uint",
          "is_symmetric": "True",
          "max": 4.050857145339251,
          "min": -4.082753658294678,
          "offset": -128,
          "scale": 0.03189651295542717
        }
      },
      "output": {
        "0": {
          "bitwidth": 8,
          "dtype": "uint",
          "is_symmetric": "True",
          "max": 1.8677382580935955,
          "min": -1.8824448585510254,
          "offset": -128,
          "scale": 0.014706600457429886
        }
      }
    },
    "backbone.res2.2.conv3": {
      "input": {
        "0": {
          "bitwidth": 8,
          "dtype": "uint",
          "is_symmetric": "True",
          "max": 4.050857145339251,
          "min": -4.082753658294678,
          "offset": -128,
          "scale": 0.03189651295542717
        }
      },
      "output": {
        "0": {
          "bitwidth": 8,
          "dtype": "uint",
          "is_symmetric": "True",
          "max": 2.4242957048118114,
          "min": -2.4433846473693848,
          "offset": -128,
          "scale": 0.01908894255757332
        }
      }
    },
    "backbone.res3.0.conv1": {
      "input": {
        "0": {
          "bitwidth": 8,
          "dtype": "uint",
          "is_symmetric": "True",
          "max": 4.050857145339251,
          "min": -4.082753658294678,
          "offset": -128,
          "scale": 0.03189651295542717
        }
      },
      "output": {
        "0": {
          "bitwidth": 8,
          "dtype": "uint",
          "is_symmetric": "True",
          "max": 1.7863063616678119,
          "min": -1.800371766090393,
          "offset": -128,
          "scale": 0.014065404422581196
        }
      }
    },
    "backbone.res3.0.conv2": {
      "input": {
        "0": {
          "bitwidth": 8,
          "dtype": "uint",
          "is_symmetric": "True",
          "max": 2.7319267615675926,
          "min": -2.7534379959106445,
          "offset": -128,
          "scale": 0.02151123434305191
        }
      },
      "output": {
        "0": {
          "bitwidth": 8,
          "dtype": "uint",
          "is_symmetric": "True",
          "max": 1.724914656020701,
          "min": -1.7384966611862183,
          "offset": -128,
          "scale": 0.01358200516551733
        }
      }
    },
    "backbone.res3.0.conv3": {
      "input": {
        "0": {
          "bitwidth": 8,
          "dtype": "uint",
          "is_symmetric": "True",
          "max": 2.7319267615675926,
          "min": -2.7534379959106445,
          "offset": -128,
          "scale": 0.02151123434305191
        }
      },
      "output": {
        "0": {
          "bitwidth": 8,
          "dtype": "uint",
          "is_symmetric": "True",
          "max": 3.810962460935116,
          "min": -3.840970039367676,
          "offset": -128,
          "scale": 0.030007578432559967
        }
      }
    },
    "backbone.res3.0.shortcut": {
      "input": {
        "0": {
          "bitwidth": 8,
          "dtype": "uint",
          "is_symmetric": "True",
          "max": 4.050857145339251,
          "min": -4.082753658294678,
          "offset": -128,
          "scale": 0.03189651295542717
        }
      },
      "output": {
        "0": {
          "bitwidth": 8,
          "dtype": "uint",
          "is_symmetric": "True",
          "max": 2.2660544514656067,
          "min": -2.2838973999023438,
          "offset": -128,
          "scale": 0.01784294843673706
        }
      }
    },
    "backbone.res3.1.conv1": {
      "input": {
        "0": {
          "bitwidth": 8,
          "dtype": "uint",
          "is_symmetric": "True",
          "max": 2.7319267615675926,
          "min": -2.7534379959106445,
          "offset": -128,
          "scale": 0.02151123434305191
        }
      },
      "output": {
        "0": {
          "bitwidth": 8,
          "dtype": "uint",
          "is_symmetric": "True",
          "max": 1.3582942374050617,
          "min": -1.3689894676208496,
          "offset": -128,
          "scale": 0.010695230215787888
        }
      }
    },
    "backbone.res3.1.conv2": {
      "input": {
        "0": {
          "bitwidth": 8,
          "dtype": "uint",
          "is_symmetric": "True",
          "max": 3.5353991631418467,
          "min": -3.563236951828003,
          "offset": -128,
          "scale": 0.027837788686156273
        }
      },
      "output": {
        "0": {
          "bitwidth": 8,
          "dtype": "uint",
          "is_symmetric": "True",
          "max": 2.0898843873292208,
          "min": -2.106340169906616,
          "offset": -128,
          "scale": 0.01645578257739544
        }
      }
    },
    "backbone.res3.1.conv3": {
      "input": {
        "0": {
          "bitwidth": 8,
          "dtype": "uint",
          "is_symmetric": "True",
          "max": 3.5353991631418467,
          "min": -3.563236951828003,
          "offset": -128,
          "scale": 0.027837788686156273
        }
      },
      "output": {
        "0": {
          "bitwidth": 8,
          "dtype": "uint",
          "is_symmetric": "True",
          "max": 2.639194706454873,
          "min": -2.65997576713562,
          "offset": -128,
          "scale": 0.020781060680747032
        }
      }
    },
    "backbone.res3.2.conv1": {
      "input": {
        "0": {
          "bitwidth": 8,
          "dtype": "uint",
          "is_symmetric": "True",
          "max": 3.5353991631418467,
          "min": -3.563236951828003,
          "offset": -128,
          "scale": 0.027837788686156273
        }
      },
      "output": {
        "0": {
          "bitwidth": 8,
          "dtype": "uint",
          "is_symmetric": "True",
          "max": 1.7096356265246868,
          "min": -1.723097324371338,
          "offset": -128,
          "scale": 0.013461697846651077
        }
      }
    },
    "backbone.res3.2.conv2": {
      "input": {
        "0": {
          "bitwidth": 8,
          "dtype": "uint",
          "is_symmetric": "True",
          "max": 3.670617373660207,
          "min": -3.6995198726654053,
          "offset": -128,
          "scale": 0.02890249900519848
        }
      },
      "output": {
        "0": {
          "bitwidth": 8,
          "dtype": "uint",
          "is_symmetric": "True",
          "max": 1.3442150196060538,
          "min": -1.3547993898391724,
          "offset": -128,
          "scale": 0.010584370233118534
        }
      }
    },
    "backbone.res3.2.conv3": {
      "input": {
        "0": {
          "bitwidth": 8,
          "dtype": "uint",
          "is_symmetric": "True",
          "max": 3.670617373660207,
          "min": -3.6995198726654053,
          "offset": -128,
          "scale": 0.02890249900519848
        }
      },
      "output": {
        "0": {
          "bitwidth": 8,
          "dtype": "uint",
          "is_symmetric": "True",
          "max": 1.660713730379939,
          "min": -1.6737902164459229,
          "offset": -128,
          "scale": 0.013076486065983772
        }
      }
    },
    "backbone.res3.3.conv1": {
      "input": {
        "0": {
          "bitwidth": 8,
          "dtype": "uint",
          "is_symmetric": "True",
          "max": 3.670617373660207,
          "min": -3.6995198726654053,
          "offset": -128,
          "scale": 0.02890249900519848
        }
      },
      "output": {
        "0": {
          "bitwidth": 8,
          "dtype": "uint",
          "is_symmetric": "True",
          "max": 1.5526765063405037,
          "min": -1.5649023056030273,
          "offset": -128,
          "scale": 0.012225799262523651
        }
      }
    },
    "backbone.res3.3.conv2": {
      "input": {
        "0": {
          "bitwidth": 8,
          "dtype": "uint",
          "is_symmetric": "True",
          "max": 3.80928504280746,
          "min": -3.8392794132232666,
          "offset": -128,
          "scale": 0.02999437041580677
        }
      },
      "output": {
        "0": {
          "bitwidth": 8,
          "dtype": "uint",
          "is_symmetric": "True",
          "max": 1.677011369727552,
          "min": -1.6902161836624146,
          "offset": -128,
          "scale": 0.013204813934862614
        }
      }
    },
    "backbone.res3.3.conv3": {
      "input": {
        "0": {
          "bitwidth": 8,
          "dtype": "uint",
          "is_symmetric": "True",
          "max": 3.80928504280746,
          "min": -3.8392794132232666,
          "offset": -128,
          "scale": 0.02999437041580677
        }
      },
      "output": {
        "0": {
          "bitwidth": 8,
          "dtype": "uint",
          "is_symmetric": "True",
          "max": 1.994269898161292,
          "min": -2.0099728107452393,
          "offset": -128,
          "scale": 0.01570291258394718
        }
      }
    },
    "backbone.res4.0.conv1": {
      "input": {
        "0": {
          "bitwidth": 8,
          "dtype": "uint",
          "is_symmetric": "True",
          "max": 3.80928504280746,
          "min": -3.8392794132232666,
          "offset": -128,
          "scale": 0.02999437041580677
        }
      },
      "output": {
        "0": {
          "bitwidth": 8,
          "dtype": "uint",
          "is_symmetric": "True",
          "max": 2.0094480365514755,
          "min": -2.025270462036133,
          "offset": -128,
          "scale": 0.015822425484657288
        }
      }
    },
    "backbone.res4.0.conv2": {
      "input": {
        "0": {
          "bitwidth": 8,
          "dtype": "uint",
          "is_symmetric": "True",
          "max": 3.021483289077878,
          "min": -3.045274496078491,
          "offset": -128,
          "scale": 0.023791207000613213
        }
      },
      "output": {
        "0": {
          "bitwidth": 8,
          "dtype": "uint",
          "is_symmetric": "True",
          "max": 1.6055997461080551,
          "min": -1.6182422637939453,
          "offset": -128,
          "scale": 0.012642517685890198
        }
      }
    },
    "backbone.res4.0.conv3": {
      "input": {
        "0": {
          "bitwidth": 8,
          "dtype": "uint",
          "is_symmetric": "True",
          "max": 3.021483289077878,
          "min": -3.045274496078491,
          "offset": -128,
          "scale": 0.023791207000613213
        }
      },
      "output": {
        "0": {
          "bitwidth": 8,
          "dtype": "uint",
          "is_symmetric": "True",
          "max": 2.5152476765215397,
          "min": -2.53505277633667,
          "offset": -128,
          "scale": 0.019805099815130234
        }
      }
    },
    "backbone.res4.0.shortcut": {
      "input": {
        "0": {
          "bitwidth": 8,
          "dtype": "uint",
          "is_symmetric": "True",
          "max": 3.80928504280746,
          "min": -3.8392794132232666,
          "offset": -128,
          "scale": 0.02999437041580677
        }
      },
      "output": {
        "0": {
          "bitwidth": 8,
          "dtype": "uint",
          "is_symmetric": "True",
          "max": 2.1252977568656206,
          "min": -2.1420323848724365,
          "offset": -128,
          "scale": 0.01673462800681591
        }
      }
    },
    "backbone.res4.1.conv1": {
      "input": {
        "0": {
          "bitwidth": 8,
          "dtype": "uint",
          "is_symmetric": "True",
          "max": 3.021483289077878,
          "min": -3.045274496078491,
          "offset": -128,
          "scale": 0.023791207000613213
        }
      },
      "output": {
        "0": {
          "bitwidth": 8,
          "dtype": "uint",
          "is_symmetric": "True",
          "max": 1.5401338376104832,
          "min": -1.5522608757019043,
          "offset": -128,
          "scale": 0.012127038091421127
        }
      }
    },
    "backbone.res4.1.conv2": {
      "input": {
        "0": {
          "bitwidth": 8,
          "dtype": "uint",
          "is_symmetric": "True",
          "max": 3.0778559874743223,
          "min": -3.102091073989868,
          "offset": -128,
          "scale": 0.024235086515545845
        }
      },
      "output": {
        "0": {
          "bitwidth": 8,
          "dtype": "uint",
          "is_symmetric": "True",
          "max": 1.6040982073172927,
          "min": -1.6167289018630981,
          "offset": -128,
          "scale": 0.012630694545805454
        }
      }
    },
    "backbone.res4.1.conv3": {
      "input": {
        "0": {
          "bitwidth": 8,
          "dtype": "uint",
          "is_symmetric": "True",
          "max": 3.0778559874743223,
          "min": -3.102091073989868,
          "offset": -128,
          "scale": 0.024235086515545845
        }
      },
      "output": {
        "0": {
          "bitwidth": 8,
          "dtype": "uint",
          "is_symmetric": "True",
          "max": 2.6738255489617586,
          "min": -2.6948792934417725,
          "offset": -128,
          "scale": 0.021053744480013847
        }
      }
    },
    "backbone.res4.2.conv1": {
      "input": {
        "0": {
          "bitwidth": 8,
          "dtype": "uint",
          "is_symmetric": "True",
          "max": 3.0778559874743223,
          "min": -3.102091073989868,
          "offset": -128,
          "scale": 0.024235086515545845
        }
      },
      "output": {
        "0": {
          "bitwidth": 8,
          "dtype": "uint",
          "is_symmetric": "True",
          "max": 1.421078311279416,
          "min": -1.4322679042816162,
          "offset": -128,
          "scale": 0.011189593002200127
        }
      }
    },
    "backbone.res4.2.conv2": {
      "input": {
        "0": {
          "bitwidth": 8,
          "dtype": "uint",
          "is_symmetric": "True",
          "max": 3.1695318203419447,
          "min": -3.194488763809204,
          "offset": -128,
          "scale": 0.024956943467259407
        }
      },
      "output": {
        "0": {
          "bitwidth": 8,
          "dtype": "uint",
          "is_symmetric": "True",
          "max": 1.039211980998516,
          "min": -1.0473947525024414,
          "offset": -128,
          "scale": 0.008182771503925323
        }
      }
    },
    "backbone.res4.2.conv3": {
      "input": {
        "0": {
          "bitwidth": 8,
          "dtype": "uint",
          "is_symmetric": "True",
          "max": 3.1695318203419447,
          "min": -3.194488763809204,
          "offset": -128,
          "scale": 0.024956943467259407
        }
      },
      "output": {
        "0": {
          "bitwidth": 8,
          "dtype": "uint",
          "is_symmetric": "True",
          "max": 1.0898039620369673,
          "min": -1.0983850955963135,
          "offset": -128,
          "scale": 0.008581133559346199
        }
      }
    },
    "backbone.res4.3.conv1": {
      "input": {
        "0": {
          "bitwidth": 8,
          "dtype": "uint",
          "is_symmetric": "True",
          "max": 3.1695318203419447,
          "min": -3.194488763809204,
          "offset": -128,
          "scale": 0.024956943467259407
        }
      },
      "output": {
        "0": {
          "bitwidth": 8,
          "dtype": "uint",
          "is_symmetric": "True",
          "max": 1.4028530959039927,
          "min": -1.4138991832733154,
          "offset": -128,
          "scale": 0.011046087369322777
        }
      }
    },
    "backbone.res4.3.conv2": {
      "input": {
        "0": {
          "bitwidth": 8,
          "dtype": "uint",
          "is_symmetric": "True",
          "max": 3.239527774974704,
          "min": -3.26503586769104,
          "offset": -128,
          "scale": 0.02550809271633625
        }
      },
      "output": {
        "0": {
          "bitwidth": 8,
          "dtype": "uint",
          "is_symmetric": "True",
          "max": 1.3073758091777563,
          "min": -1.3176701068878174,
          "offset": -128,
          "scale": 0.010294297710061073
        }
      }
    },
    "backbone.res4.3.conv3": {
      "input": {
        "0": {
          "bitwidth": 8,
          "dtype": "uint",
          "is_symmetric": "True",
          "max": 3.239527774974704,
          "min": -3.26503586769104,
          "offset": -128,
          "scale": 0.02550809271633625
        }
      },
      "output": {
        "0": {
          "bitwidth": 8,
          "dtype": "uint",
          "is_symmetric": "True",
          "max": 1.290594294667244,
          "min": -1.3007564544677734,
          "offset": -128,
          "scale": 0.01016215980052948
        }
      }
    },
    "backbone.res4.4.conv1": {
      "input": {
        "0": {
          "bitwidth": 8,
          "dtype": "uint",
          "is_symmetric": "True",
          "max": 3.239527774974704,
          "min": -3.26503586769104,
          "offset": -128,
          "scale": 0.02550809271633625
        }
      },
      "output": {
        "0": {
          "bitwidth": 8,
          "dtype": "uint",
          "is_symmetric": "True",
          "max": 1.3704601908102632,
          "min": -1.3812512159347534,
          "offset": -128,
          "scale": 0.010791025124490261
        }
      }
    },
    "backbone.res4.4.conv2": {
      "input": {
        "0": {
          "bitwidth": 8,
          "dtype": "uint",
          "is_symmetric": "True",
          "max": 3.283684015274048,
          "min": -3.309539794921875,
          "offset": -128,
          "scale": 0.02585577964782715
        }
      },
      "output": {
        "0": {
          "bitwidth": 8,
          "dtype": "uint",
          "is_symmetric": "True",
          "max": 1.438065156340599,
          "min": -1.4493885040283203,
          "offset": -128,
          "scale": 0.011323347687721252
        }
      }
    },
    "backbone.res4.4.conv3": {
      "input": {
        "0": {
          "bitwidth": 8,
          "dtype": "uint",
          "is_symmetric": "True",
          "max": 3.283684015274048,
          "min": -3.309539794921875,
          "offset": -128,
          "scale": 0.02585577964782715
        }
      },
      "output": {
        "0": {
          "bitwidth": 8,
          "dtype": "uint",
          "is_symmetric": "True",
          "max": 1.4742395263165236,
          "min": -1.4858477115631104,
          "offset": -128,
          "scale": 0.0116081852465868
        }
      }
    },
    "backbone.res4.5.conv1": {
      "input": {
        "0": {
          "bitwidth": 8,
          "dtype": "uint",
          "is_symmetric": "True",
          "max": 3.283684015274048,
          "min": -3.309539794921875,
          "offset": -128,
          "scale": 0.02585577964782715
        }
      },
      "output": {
        "0": {
          "bitwidth": 8,
          "dtype": "uint",
          "is_symmetric": "True",
          "max": 1.267905150540173,
          "min": -1.2778886556625366,
          "offset": -128,
          "scale": 0.009983505122363567
        }
      }
    },
    "backbone.res4.5.conv2": {
      "input": {
        "0": {
          "bitwidth": 8,
          "dtype": "uint",
          "is_symmetric": "True",
          "max": 3.550200704485178,
          "min": -3.578155040740967,
          "offset": -128,
          "scale": 0.027954336255788803
        }
      },
      "output": {
        "0": {
          "bitwidth": 8,
          "dtype": "uint",
          "is_symmetric": "True",
          "max": 1.3298884825780988,
          "min": -1.3403600454330444,
          "offset": -128,
          "scale": 0.01047156285494566
        }
      }
    },
    "backbone.res4.5.conv3": {
      "input": {
        "0": {
          "bitwidth": 8,
          "dtype": "uint",
          "is_symmetric": "True",
          "max": 3.550200704485178,
          "min": -3.578155040740967,
          "offset": -128,
          "scale": 0.027954336255788803
        }
      },
      "output": {
        "0": {
          "bitwidth": 8,
          "dtype": "uint",
          "is_symmetric": "True",
          "max": 1.5351345827803016,
          "min": -1.5472222566604614,
          "offset": -128,
          "scale": 0.012087673880159855
        }
      }
    },
    "backbone.res5.0.conv1": {
      "input": {
        "0": {
          "bitwidth": 8,
          "dtype": "uint",
          "is_symmetric": "True",
          "max": 3.550200704485178,
          "min": -3.578155040740967,
          "offset": -128,
          "scale": 0.027954336255788803
        }
      },
      "output": {
        "0": {
          "bitwidth": 8,
          "dtype": "uint",
          "is_symmetric": "True",
          "max": 1.5568708796054125,
          "min": -1.5691297054290771,
          "offset": -128,
          "scale": 0.012258825823664665
        }
      }
    },
    "backbone.res5.0.conv2": {
      "input": {
        "0": {
          "bitwidth": 8,
          "dtype": "uint",
          "is_symmetric": "True",
          "max": 2.5367707181721926,
          "min": -2.5567452907562256,
          "offset": -128,
          "scale": 0.019974572584033012
        }
      },
      "output": {
        "0": {
          "bitwidth": 8,
          "dtype": "uint",
          "is_symmetric": "True",
          "max": 1.413887957111001,
          "min": -1.4250209331512451,
          "offset": -128,
          "scale": 0.011132976040244102
        }
      }
    },
    "backbone.res5.0.conv3": {
      "input": {
        "0": {
          "bitwidth": 8,
          "dtype": "uint",
          "is_symmetric": "True",
          "max": 2.5367707181721926,
          "min": -2.5567452907562256,
          "offset": -128,
          "scale": 0.019974572584033012
        }
      },
      "output": {
        "0": {
          "bitwidth": 8,
          "dtype": "uint",
          "is_symmetric": "True",
          "max": 2.4653251487761736,
          "min": -2.4847371578216553,
          "offset": -128,
          "scale": 0.019412009045481682
        }
      }
    },
    "backbone.res5.0.shortcut": {
      "input": {
        "0": {
          "bitwidth": 8,
          "dtype": "uint",
          "is_symmetric": "True",
          "max": 3.550200704485178,
          "min": -3.578155040740967,
          "offset": -128,
          "scale": 0.027954336255788803
        }
      },
      "output": {
        "0": {
          "bitwidth": 8,
          "dtype": "uint",
          "is_symmetric": "True",
          "max": 3.046865977346897,
          "min": -3.070857048034668,
          "offset": -128,
          "scale": 0.023991070687770844
        }
      }
    },
    "backbone.res5.1.conv1": {
      "input": {
        "0": {
          "bitwidth": 8,
          "dtype": "uint",
          "is_symmetric": "True",
          "max": 2.5367707181721926,
          "min": -2.5567452907562256,
          "offset": -128,
          "scale": 0.019974572584033012
        }
      },
      "output": {
        "0": {
          "bitwidth": 8,
          "dtype": "uint",
          "is_symmetric": "True",
          "max": 1.3747119288891554,
          "min": -1.3855364322662354,
          "offset": -128,
          "scale": 0.010824503377079964
        }
      }
    },
    "backbone.res5.1.conv2": {
      "input": {
        "0": {
          "bitwidth": 8,
          "dtype": "uint",
          "is_symmetric": "True",
          "max": 2.4558882229030132,
          "min": -2.4752259254455566,
          "offset": -128,
          "scale": 0.01933770254254341
        }
      },
      "output": {
        "0": {
          "bitwidth": 8,
          "dtype": "uint",
          "is_symmetric": "True",
          "max": 1.3079007267951965,
          "min": -1.3181991577148438,
          "offset": -128,
          "scale": 0.010298430919647217
        }
      }
    },
    "backbone.res5.1.conv3": {
      "input": {
        "0": {
          "bitwidth": 8,
          "dtype": "uint",
          "is_symmetric": "True",
          "max": 2.4558882229030132,
          "min": -2.4752259254455566,
          "offset": -128,
          "scale": 0.01933770254254341
        }
      },
      "output": {
        "0": {
          "bitwidth": 8,
          "dtype": "uint",
          "is_symmetric": "True",
          "max": 1.8944509821012616,
          "min": -1.9093679189682007,
          "offset": -128,
          "scale": 0.014916936866939068
        }
      }
    },
    "backbone.res5.2.conv1": {
      "input": {
        "0": {
          "bitwidth": 8,
          "dtype": "uint",
          "is_symmetric": "True",
          "max": 2.4558882229030132,
          "min": -2.4752259254455566,
          "offset": -128,
          "scale": 0.01933770254254341
        }
      },
      "output": {
        "0": {
          "bitwidth": 8,
          "dtype": "uint",
          "is_symmetric": "True",
          "max": 2.1607210617512465,
          "min": -2.177734613418579,
          "offset": -128,
          "scale": 0.01701355166733265
        }
      }
    },
    "backbone.res5.2.conv2": {
      "input": {
        "0": {
          "bitwidth": 8,
          "dtype": "uint",
          "is_symmetric": "True",
          "max": 2.4889412373304367,
          "min": -2.5085391998291016,
          "offset": -128,
          "scale": 0.019597962498664856
        }
      },
      "output": {
        "0": {
          "bitwidth": 8,
          "dtype": "uint",
          "is_symmetric": "True",
          "max": 1.969254581257701,
          "min": -1.9847605228424072,
          "offset": -128,
          "scale": 0.015505941584706306
        }
      }
    },
    "backbone.res5.2.conv3": {
      "input": {
        "0": {
          "bitwidth": 8,
          "dtype": "uint",
          "is_symmetric": "True",
          "max": 2.4889412373304367,
          "min": -2.5085391998291016,
          "offset": -128,
          "scale": 0.019597962498664856
        }
      },
      "output": {
        "0": {
          "bitwidth": 8,
          "dtype": "uint",
          "is_symmetric": "True",
          "max": 8.58387016505003,
          "min": -8.651459693908691,
          "offset": -128,
          "scale": 0.06758952885866165
        }
      }
    },
    "backbone.stem.conv1": {
      "output": {
        "0": {
          "bitwidth": 8,
          "dtype": "uint",
          "is_symmetric": "True",
          "max": 3.656706465408206,
          "min": -3.685499429702759,
          "offset": -128,
          "scale": 0.028792964294552803
        }
      }
    },
    "backbone.stem.conv2": {
      "input": {
        "0": {
          "bitwidth": 8,
          "dtype": "uint",
          "is_symmetric": "True",
          "max": 3.656706465408206,
          "min": -3.685499429702759,
          "offset": -128,
          "scale": 0.028792964294552803
        }
      },
      "output": {
        "0": {
          "bitwidth": 8,
          "dtype": "uint",
          "is_symmetric": "True",
          "max": 6.695426166057587,
          "min": -6.748146057128906,
          "offset": -128,
          "scale": 0.05271989107131958
        }
      }
    },
    "backbone.stem.conv3": {
      "input": {
        "0": {
          "bitwidth": 8,
          "dtype": "uint",
          "is_symmetric": "True",
          "max": 6.695426166057587,
          "min": -6.748146057128906,
          "offset": -128,
          "scale": 0.05271989107131958
        }
      },
      "output": {
        "0": {
          "bitwidth": 8,
          "dtype": "uint",
          "is_symmetric": "True",
          "max": 2.1879051234573126,
          "min": -2.2051327228546143,
          "offset": -128,
          "scale": 0.017227599397301674
        }
      }
    },
    "instance_head.center_head.0": {
      "input": {
        "0": {
          "bitwidth": 8,
          "dtype": "uint",
          "is_symmetric": "True",
          "max": 10.491883017122746,
          "min": -10.574496269226074,
          "offset": -128,
          "scale": 0.0826132521033287
        }
      },
      "output": {
        "0": {
          "bitwidth": 8,
          "dtype": "uint",
          "is_symmetric": "True",
          "max": 13.749834477901459,
          "min": -13.858100891113281,
          "offset": -128,
          "scale": 0.10826641321182251
        }
      }
    },
    "instance_head.center_head.1": {
      "input": {
        "0": {
          "bitwidth": 8,
          "dtype": "uint",
          "is_symmetric": "True",
          "max": 13.749834477901459,
          "min": -13.858100891113281,
          "offset": -128,
          "scale": 0.10826641321182251
        }
      },
      "output": {
        "0": {
          "bitwidth": 8,
          "dtype": "uint",
          "is_symmetric": "True",
          "max": 5.05321891605854,
          "min": -5.093008041381836,
          "offset": -128,
          "scale": 0.03978912532329559
        }
      }
    },
    "instance_head.center_predictor": {
      "input": {
        "0": {
          "bitwidth": 8,
          "dtype": "uint",
          "is_symmetric": "True",
          "max": 5.05321891605854,
          "min": -5.093008041381836,
          "offset": -128,
          "scale": 0.03978912532329559
        }
      },
      "output": {
        "0": {
          "bitwidth": 8,
          "dtype": "uint",
          "is_symmetric": "True",
          "max": 0.9871187568642199,
          "min": -0.994891345500946,
          "offset": -128,
          "scale": 0.007772588636726141
        }
      }
    },
    "instance_head.decoder.res2.fuse_conv.0": {
      "output": {
        "0": {
          "bitwidth": 8,
          "dtype": "uint",
          "is_symmetric": "True",
          "max": 6.971284449100494,
          "min": -7.026176452636719,
          "offset": -128,
          "scale": 0.054892003536224365
        }
      }
    },
    "instance_head.decoder.res2.fuse_conv.1": {
      "input": {
        "0": {
          "bitwidth": 8,
          "dtype": "uint",
          "is_symmetric": "True",
          "max": 6.971284449100494,
          "min": -7.026176452636719,
          "offset": -128,
          "scale": 0.054892003536224365
        }
      },
      "output": {
        "0": {
          "bitwidth": 8,
          "dtype": "uint",
          "is_symmetric": "True",
          "max": 10.491883017122746,
          "min": -10.574496269226074,
          "offset": -128,
          "scale": 0.0826132521033287
        }
      }
    },
    "instance_head.decoder.res2.project_conv": {
      "input": {
        "0": {
          "bitwidth": 8,
          "dtype": "uint",
          "is_symmetric": "True",
          "max": 4.050857145339251,
          "min": -4.082753658294678,
          "offset": -128,
          "scale": 0.03189651295542717
        }
      },
      "output": {
        "0": {
          "bitwidth": 8,
          "dtype": "uint",
          "is_symmetric": "True",
          "max": 4.3345151506364346,
          "min": -4.368645191192627,
          "offset": -128,
          "scale": 0.0341300405561924
        }
      }
    },
    "instance_head.decoder.res3.fuse_conv.0": {
      "output": {
        "0": {
          "bitwidth": 8,
          "dtype": "uint",
          "is_symmetric": "True",
          "max": 5.074858579784632,
          "min": -5.114818096160889,
          "offset": -128,
          "scale": 0.03995951637625694
        }
      }
    },
    "instance_head.decoder.res3.fuse_conv.1": {
      "input": {
        "0": {
          "bitwidth": 8,
          "dtype": "uint",
          "is_symmetric": "True",
          "max": 5.074858579784632,
          "min": -5.114818096160889,
          "offset": -128,
          "scale": 0.03995951637625694
        }
      },
      "output": {
        "0": {
          "bitwidth": 8,
          "dtype": "uint",
          "is_symmetric": "True",
          "max": 7.309225417673588,
          "min": -7.366778373718262,
          "offset": -128,
          "scale": 0.05755295604467392
        }
      }
    },
    "instance_head.decoder.res3.project_conv": {
      "input": {
        "0": {
          "bitwidth": 8,
          "dtype": "uint",
          "is_symmetric": "True",
          "max": 3.80928504280746,
          "min": -3.8392794132232666,
          "offset": -128,
          "scale": 0.02999437041580677
        }
      },
      "output": {
        "0": {
          "bitwidth": 8,
          "dtype": "uint",
          "is_symmetric": "True",
          "max": 6.461928427219391,
          "min": -6.512809753417969,
          "offset": -128,
          "scale": 0.05088132619857788
        }
      }
    },
    "instance_head.decoder.res5.project_conv.convs.0": {
      "input": {
        "0": {
          "bitwidth": 8,
          "dtype": "uint",
          "is_symmetric": "True",
          "max": 2.4889412373304367,
          "min": -2.5085391998291016,
          "offset": -128,
          "scale": 0.019597962498664856
        }
      },
      "output": {
        "0": {
          "bitwidth": 8,
          "dtype": "uint",
          "is_symmetric": "True",
          "max": 7.890823729336262,
          "min": -7.952956199645996,
          "offset": -128,
          "scale": 0.062132470309734344
        }
      }
    },
    "instance_head.decoder.res5.project_conv.convs.1": {
      "input": {
        "0": {
          "bitwidth": 8,
          "dtype": "uint",
          "is_symmetric": "True",
          "max": 2.4889412373304367,
          "min": -2.5085391998291016,
          "offset": -128,
          "scale": 0.019597962498664856
        }
      },
      "output": {
        "0": {
          "bitwidth": 8,
          "dtype": "uint",
          "is_symmetric": "True",
          "max": 5.162184149026871,
          "min": -5.202831268310547,
          "offset": -128,
          "scale": 0.04064711928367615
        }
      }
    },
    "instance_head.decoder.res5.project_conv.convs.2": {
      "input": {
        "0": {
          "bitwidth": 8,
          "dtype": "uint",
          "is_symmetric": "True",
          "max": 2.4889412373304367,
          "min": -2.5085391998291016,
          "offset": -128,
          "scale": 0.019597962498664856
        }
      },
      "output": {
        "0": {
          "bitwidth": 8,
          "dtype": "uint",
          "is_symmetric": "True",
          "max": 4.3636654652655125,
          "min": -4.398025035858154,
          "offset": -128,
          "scale": 0.03435957059264183
        }
      }
    },
    "instance_head.decoder.res5.project_conv.convs.3": {
      "input": {
        "0": {
          "bitwidth": 8,
          "dtype": "uint",
          "is_symmetric": "True",
          "max": 2.4889412373304367,
          "min": -2.5085391998291016,
          "offset": -128,
          "scale": 0.019597962498664856
        }
      },
      "output": {
        "0": {
          "bitwidth": 8,
          "dtype": "uint",
          "is_symmetric": "True",
          "max": 3.6631949581205845,
          "min": -3.6920390129089355,
          "offset": -128,
          "scale": 0.02884405478835106
        }
      }
    },
    "instance_head.decoder.res5.project_conv.convs.4.1": {
      "input": {
        "0": {
          "bitwidth": 8,
          "dtype": "uint",
          "is_symmetric": "True",
          "max": 0.4987134295515716,
          "min": -0.5026403069496155,
          "offset": -128,
          "scale": 0.003926877398043871
        }
      },
      "output": {
        "0": {
          "bitwidth": 8,
          "dtype": "uint",
          "is_symmetric": "True",
          "max": 3.0386101752519608,
          "min": -3.0625362396240234,
          "offset": -128,
          "scale": 0.023926064372062683
        }
      }
    },
    "instance_head.decoder.res5.project_conv.project": {
      "output": {
        "0": {
          "bitwidth": 8,
          "dtype": "uint",
          "is_symmetric": "True",
          "max": 4.372625257819891,
          "min": -4.407055377960205,
          "offset": -128,
          "scale": 0.0344301201403141
        }
      }
    },
    "instance_head.offset_head.0": {
      "input": {
        "0": {
          "bitwidth": 8,
          "dtype": "uint",
          "is_symmetric": "True",
          "max": 10.491883017122746,
          "min": -10.574496269226074,
          "offset": -128,
          "scale": 0.0826132521033287
        }
      },
      "output": {
        "0": {
          "bitwidth": 8,
          "dtype": "uint",
          "is_symmetric": "True",
          "max": 17.643522441387177,
          "min": -17.782447814941406,
          "offset": -128,
          "scale": 0.13892537355422974
        }
      }
    },
    "instance_head.offset_head.1": {
      "input": {
        "0": {
          "bitwidth": 8,
          "dtype": "uint",
          "is_symmetric": "True",
          "max": 17.643522441387177,
          "min": -17.782447814941406,
          "offset": -128,
          "scale": 0.13892537355422974
        }
      },
      "output": {
        "0": {
          "bitwidth": 8,
          "dtype": "uint",
          "is_symmetric": "True",
          "max": 14.22026190906763,
          "min": -14.332232475280762,
          "offset": -128,
          "scale": 0.11197056621313095
        }
      }
    },
    "instance_head.offset_predictor": {
      "input": {
        "0": {
          "bitwidth": 8,
          "dtype": "uint",
          "is_symmetric": "True",
          "max": 14.22026190906763,
          "min": -14.332232475280762,
          "offset": -128,
          "scale": 0.11197056621313095
        }
      },
      "output": {
        "0": {
          "bitwidth": 8,
          "dtype": "uint",
          "is_symmetric": "True",
          "max": 92.98555791378021,
          "min": -93.71772766113281,
          "offset": -128,
          "scale": 0.7321697473526001
        }
      }
    },
    "semantic_head.decoder.res2.fuse_conv.0": {
      "output": {
        "0": {
          "bitwidth": 8,
          "dtype": "uint",
          "is_symmetric": "True",
          "max": 7.318968683481216,
          "min": -7.376598358154297,
          "offset": -128,
          "scale": 0.057629674673080444
        }
      }
    },
    "semantic_head.decoder.res2.fuse_conv.1": {
      "input": {
        "0": {
          "bitwidth": 8,
          "dtype": "uint",
          "is_symmetric": "True",
          "max": 7.318968683481216,
          "min": -7.376598358154297,
          "offset": -128,
          "scale": 0.057629674673080444
        }
      },
      "output": {
        "0": {
          "bitwidth": 8,
          "dtype": "uint",
          "is_symmetric": "True",
          "max": 13.22778107970953,
          "min": -13.331936836242676,
          "offset": -128,
          "scale": 0.1041557565331459
        }
      }
    },
    "semantic_head.decoder.res2.project_conv": {
      "input": {
        "0": {
          "bitwidth": 8,
          "dtype": "uint",
          "is_symmetric": "True",
          "max": 4.050857145339251,
          "min": -4.082753658294678,
          "offset": -128,
          "scale": 0.03189651295542717
        }
      },
      "output": {
        "0": {
          "bitwidth": 8,
          "dtype": "uint",
          "is_symmetric": "True",
          "max": 13.652894802391529,
          "min": -13.760397911071777,
          "offset": -128,
          "scale": 0.10750310868024826
        }
      }
    },
    "semantic_head.decoder.res3.fuse_conv.0": {
      "output": {
        "0": {
          "bitwidth": 8,
          "dtype": "uint",
          "is_symmetric": "True",
          "max": 11.81656502187252,
          "min": -11.909608840942383,
          "offset": -128,
          "scale": 0.09304381906986237
        }
      }
    },
    "semantic_head.decoder.res3.fuse_conv.1": {
      "input": {
        "0": {
          "bitwidth": 8,
          "dtype": "uint",
          "is_symmetric": "True",
          "max": 11.81656502187252,
          "min": -11.909608840942383,
          "offset": -128,
          "scale": 0.09304381906986237
        }
      },
      "output": {
        "0": {
          "bitwidth": 8,
          "dtype": "uint",
          "is_symmetric": "True",
          "max": 5.237012941390276,
          "min": -5.278249263763428,
          "offset": -128,
          "scale": 0.04123632237315178
        }
      }
    },
    "semantic_head.decoder.res3.project_conv": {
      "input": {
        "0": {
          "bitwidth": 8,
          "dtype": "uint",
          "is_symmetric": "True",
          "max": 3.80928504280746,
          "min": -3.8392794132232666,
          "offset": -128,
          "scale": 0.02999437041580677
        }
      },
      "output": {
        "0": {
          "bitwidth": 8,
          "dtype": "uint",
          "is_symmetric": "True",
          "max": 10.228782668709755,
          "min": -10.309324264526367,
          "offset": -128,
          "scale": 0.08054159581661224
        }
      }
    },
    "semantic_head.decoder.res5.project_conv.convs.0": {
      "input": {
        "0": {
          "bitwidth": 8,
          "dtype": "uint",
          "is_symmetric": "True",
          "max": 2.4889412373304367,
          "min": -2.5085391998291016,
          "offset": -128,
          "scale": 0.019597962498664856
        }
      },
      "output": {
        "0": {
          "bitwidth": 8,
          "dtype": "uint",
          "is_symmetric": "True",
          "max": 4.978061784058809,
          "min": -5.017259120941162,
          "offset": -128,
          "scale": 0.03919733688235283
        }
      }
    },
    "semantic_head.decoder.res5.project_conv.convs.1": {
      "input": {
        "0": {
          "bitwidth": 8,
          "dtype": "uint",
          "is_symmetric": "True",
          "max": 2.4889412373304367,
          "min": -2.5085391998291016,
          "offset": -128,
          "scale": 0.019597962498664856
        }
      },
      "output": {
        "0": {
          "bitwidth": 8,
          "dtype": "uint",
          "is_symmetric": "True",
          "max": 3.824325032532215,
          "min": -3.854437828063965,
          "offset": -128,
          "scale": 0.030112795531749725
        }
      }
    },
    "semantic_head.decoder.res5.project_conv.convs.2": {
      "input": {
        "0": {
          "bitwidth": 8,
          "dtype": "uint",
          "is_symmetric": "True",
          "max": 2.4889412373304367,
          "min": -2.5085391998291016,
          "offset": -128,
          "scale": 0.019597962498664856
        }
      },
      "output": {
        "0": {
          "bitwidth": 8,
          "dtype": "uint",
          "is_symmetric": "True",
          "max": 2.92821803689003,
          "min": -2.951274871826172,
          "offset": -128,
          "scale": 0.023056834936141968
        }
      }
    },
    "semantic_head.decoder.res5.project_conv.convs.3": {
      "input": {
        "0": {
          "bitwidth": 8,
          "dtype": "uint",
          "is_symmetric": "True",
          "max": 2.4889412373304367,
          "min": -2.5085391998291016,
          "offset": -128,
          "scale": 0.019597962498664856
        }
      },
      "output": {
        "0": {
          "bitwidth": 8,
          "dtype": "uint",
          "is_symmetric": "True",
          "max": 2.4626719374209642,
          "min": -2.482063055038452,
          "offset": -128,
          "scale": 0.019391117617487907
        }
      }
    },
    "semantic_head.decoder.res5.project_conv.convs.4.1": {
      "input": {
        "0": {
          "bitwidth": 8,
          "dtype": "uint",
          "is_symmetric": "True",
          "max": 0.4987134295515716,
          "min": -0.5026403069496155,
          "offset": -128,
          "scale": 0.003926877398043871
        }
      },
      "output": {
        "0": {
          "bitwidth": 8,
          "dtype": "uint",
          "is_symmetric": "True",
          "max": 2.186260350048542,
          "min": -2.203474998474121,
          "offset": -128,
          "scale": 0.01721464842557907
        }
      }
    },
    "semantic_head.decoder.res5.project_conv.project": {
      "output": {
        "0": {
          "bitwidth": 8,
          "dtype": "uint",
          "is_symmetric": "True",
          "max": 3.714072462171316,
          "min": -3.743317127227783,
          "offset": -128,
          "scale": 0.029244665056467056
        }
      }
    },
    "semantic_head.head.0": {
      "input": {
        "0": {
          "bitwidth": 8,
          "dtype": "uint",
          "is_symmetric": "True",
          "max": 13.22778107970953,
          "min": -13.331936836242676,
          "offset": -128,
          "scale": 0.1041557565331459
        }
      },
      "output": {
        "0": {
          "bitwidth": 8,
          "dtype": "uint",
          "is_symmetric": "True",
          "max": 7.766553800553083,
          "min": -7.827707767486572,
          "offset": -128,
          "scale": 0.061153966933488846
        }
      }
    },
    "semantic_head.head.1": {
      "input": {
        "0": {
          "bitwidth": 8,
          "dtype": "uint",
          "is_symmetric": "True",
          "max": 7.766553800553083,
          "min": -7.827707767486572,
          "offset": -128,
          "scale": 0.061153966933488846
        }
      },
      "output": {
        "0": {
          "bitwidth": 8,
          "dtype": "uint",
          "is_symmetric": "True",
          "max": 3.760339254513383,
          "min": -3.7899482250213623,
          "offset": -128,
          "scale": 0.029608970507979393
        }
      }
    },
    "semantic_head.predictor": {
      "input": {
        "0": {
          "bitwidth": 8,
          "dtype": "uint",
          "is_symmetric": "True",
          "max": 3.760339254513383,
          "min": -3.7899482250213623,
          "offset": -128,
          "scale": 0.029608970507979393
        }
      },
      "output": {
        "0": {
          "bitwidth": 8,
          "dtype": "uint",
          "is_symmetric": "True",
          "max": 64.03707659244537,
          "min": -64.54130554199219,
          "offset": -128,
          "scale": 0.504228949546814
        }
      }
    },
    "model.backbone.stem": {
      "input": {
        "0": {
          "bitwidth": 8,
          "dtype": "uint",
          "is_symmetric": "True",
          "max": 2.1879051234573126,
          "min": -2.2051327228546143,
          "offset": -128,
          "scale": 0.017227599397301674
        }
      }
    },
    "model.backbone.stem.maxpool": {
      "input": {
        "0": {
          "bitwidth": 8,
          "dtype": "uint",
          "is_symmetric": "True",
          "max": 2.1879051234573126,
          "min": -2.2051327228546143,
          "offset": -128,
          "scale": 0.017227599397301674
        }
      }
    },
    "model.backbone.res2.0.relu": {
      "input": {
        "0": {
          "bitwidth": 8,
          "dtype": "uint",
          "is_symmetric": "True",
          "max": 2.2259421348571777,
          "min": -2.24346923828125,
          "offset": -128,
          "scale": 0.017527103424072266
        }
      },
      "output": {
        "0": {
          "bitwidth": 8,
          "dtype": "uint",
          "is_symmetric": "True",
          "max": 3.3274863678961992,
          "min": -3.353687047958374,
          "offset": -128,
          "scale": 0.026200680062174797
        }
      }
    },
    "model.backbone.res2.0.relu_1": {
      "input": {
        "0": {
          "bitwidth": 8,
          "dtype": "uint",
          "is_symmetric": "True",
          "max": 1.5202455157414079,
          "min": -1.53221595287323,
          "offset": -128,
          "scale": 0.01197043713182211
        }
      },
      "output": {
        "0": {
          "bitwidth": 8,
          "dtype": "uint",
          "is_symmetric": "True",
          "max": 3.3274863678961992,
          "min": -3.353687047958374,
          "offset": -128,
          "scale": 0.026200680062174797
        }
      }
    },
    "model.backbone.res2.0.relu_2": {
      "output": {
        "0": {
          "bitwidth": 8,
          "dtype": "uint",
          "is_symmetric": "True",
          "max": 3.3274863678961992,
          "min": -3.353687047958374,
          "offset": -128,
          "scale": 0.026200680062174797
        }
      }
    },
    "model.backbone.res2.1.relu": {
      "input": {
        "0": {
          "bitwidth": 8,
          "dtype": "uint",
          "is_symmetric": "True",
          "max": 1.9552472764626145,
          "min": -1.9706429243087769,
          "offset": -128,
          "scale": 0.01539564784616232
        }
      },
      "output": {
        "0": {
          "bitwidth": 8,
          "dtype": "uint",
          "is_symmetric": "True",
          "max": 3.786297956481576,
          "min": -3.8161113262176514,
          "offset": -128,
          "scale": 0.0298133697360754
        }
      }
    },
    "model.backbone.res2.1.relu_1": {
      "input": {
        "0": {
          "bitwidth": 8,
          "dtype": "uint",
          "is_symmetric": "True",
          "max": 1.8021913291886449,
          "min": -1.816381812095642,
          "offset": -128,
          "scale": 0.014190482906997204
        }
      },
      "output": {
        "0": {
          "bitwidth": 8,
          "dtype": "uint",
          "is_symmetric": "True",
          "max": 3.786297956481576,
          "min": -3.8161113262176514,
          "offset": -128,
          "scale": 0.0298133697360754
        }
      }
    },
    "model.backbone.res2.1.relu_2": {
      "output": {
        "0": {
          "bitwidth": 8,
          "dtype": "uint",
          "is_symmetric": "True",
          "max": 3.786297956481576,
          "min": -3.8161113262176514,
          "offset": -128,
          "scale": 0.0298133697360754
        }
      }
    },
    "model.backbone.res2.2.relu": {
      "input": {
        "0": {
          "bitwidth": 8,
          "dtype": "uint",
          "is_symmetric": "True",
          "max": 1.547305858694017,
          "min": -1.559489369392395,
          "offset": -128,
          "scale": 0.012183510698378086
        }
      },
      "output": {
        "0": {
          "bitwidth": 8,
          "dtype": "uint",
          "is_symmetric": "True",
          "max": 4.050857145339251,
          "min": -4.082753658294678,
          "offset": -128,
          "scale": 0.03189651295542717
        }
      }
    },
    "model.backbone.res2.2.relu_1": {
      "input": {
        "0": {
          "bitwidth": 8,
          "dtype": "uint",
          "is_symmetric": "True",
          "max": 1.8677382580935955,
          "min": -1.8824448585510254,
          "offset": -128,
          "scale": 0.014706600457429886
        }
      },
      "output": {
        "0": {
          "bitwidth": 8,
          "dtype": "uint",
          "is_symmetric": "True",
          "max": 4.050857145339251,
          "min": -4.082753658294678,
          "offset": -128,
          "scale": 0.03189651295542717
        }
      }
    },
    "model.backbone.res2.2.relu_2": {
      "output": {
        "0": {
          "bitwidth": 8,
          "dtype": "uint",
          "is_symmetric": "True",
          "max": 4.050857145339251,
          "min": -4.082753658294678,
          "offset": -128,
          "scale": 0.03189651295542717
        }
      }
    },
    "model.backbone.res3.0.relu": {
      "input": {
        "0": {
          "bitwidth": 8,
          "dtype": "uint",
          "is_symmetric": "True",
          "max": 1.7863063616678119,
          "min": -1.800371766090393,
          "offset": -128,
          "scale": 0.014065404422581196
        }
      },
      "output": {
        "0": {
          "bitwidth": 8,
          "dtype": "uint",
          "is_symmetric": "True",
          "max": 2.7319267615675926,
          "min": -2.7534379959106445,
          "offset": -128,
          "scale": 0.02151123434305191
        }
      }
    },
    "model.backbone.res3.0.relu_1": {
      "input": {
        "0": {
          "bitwidth": 8,
          "dtype": "uint",
          "is_symmetric": "True",
          "max": 1.724914656020701,
          "min": -1.7384966611862183,
          "offset": -128,
          "scale": 0.01358200516551733
        }
      },
      "output": {
        "0": {
          "bitwidth": 8,
          "dtype": "uint",
          "is_symmetric": "True",
          "max": 2.7319267615675926,
          "min": -2.7534379959106445,
          "offset": -128,
          "scale": 0.02151123434305191
        }
      }
    },
    "model.backbone.res3.0.relu_2": {
      "output": {
        "0": {
          "bitwidth": 8,
          "dtype": "uint",
          "is_symmetric": "True",
          "max": 2.7319267615675926,
          "min": -2.7534379959106445,
          "offset": -128,
          "scale": 0.02151123434305191
        }
      }
    },
    "model.backbone.res3.1.relu": {
      "input": {
        "0": {
          "bitwidth": 8,
          "dtype": "uint",
          "is_symmetric": "True",
          "max": 1.3582942374050617,
          "min": -1.3689894676208496,
          "offset": -128,
          "scale": 0.010695230215787888
        }
      },
      "output": {
        "0": {
          "bitwidth": 8,
          "dtype": "uint",
          "is_symmetric": "True",
          "max": 3.5353991631418467,
          "min": -3.563236951828003,
          "offset": -128,
          "scale": 0.027837788686156273
        }
      }
    },
    "model.backbone.res3.1.relu_1": {
      "input": {
        "0": {
          "bitwidth": 8,
          "dtype": "uint",
          "is_symmetric": "True",
          "max": 2.0898843873292208,
          "min": -2.106340169906616,
          "offset": -128,
          "scale": 0.01645578257739544
        }
      },
      "output": {
        "0": {
          "bitwidth": 8,
          "dtype": "uint",
          "is_symmetric": "True",
          "max": 3.5353991631418467,
          "min": -3.563236951828003,
          "offset": -128,
          "scale": 0.027837788686156273
        }
      }
    },
    "model.backbone.res3.1.relu_2": {
      "output": {
        "0": {
          "bitwidth": 8,
          "dtype": "uint",
          "is_symmetric": "True",
          "max": 3.5353991631418467,
          "min": -3.563236951828003,
          "offset": -128,
          "scale": 0.027837788686156273
        }
      }
    },
    "model.backbone.res3.2.relu": {
      "input": {
        "0": {
          "bitwidth": 8,
          "dtype": "uint",
          "is_symmetric": "True",
          "max": 1.7096356265246868,
          "min": -1.723097324371338,
          "offset": -128,
          "scale": 0.013461697846651077
        }
      },
      "output": {
        "0": {
          "bitwidth": 8,
          "dtype": "uint",
          "is_symmetric": "True",
          "max": 3.670617373660207,
          "min": -3.6995198726654053,
          "offset": -128,
          "scale": 0.02890249900519848
        }
      }
    },
    "model.backbone.res3.2.relu_1": {
      "input": {
        "0": {
          "bitwidth": 8,
          "dtype": "uint",
          "is_symmetric": "True",
          "max": 1.3442150196060538,
          "min": -1.3547993898391724,
          "offset": -128,
          "scale": 0.010584370233118534
        }
      },
      "output": {
        "0": {
          "bitwidth": 8,
          "dtype": "uint",
          "is_symmetric": "True",
          "max": 3.670617373660207,
          "min": -3.6995198726654053,
          "offset": -128,
          "scale": 0.02890249900519848
        }
      }
    },
    "model.backbone.res3.2.relu_2": {
      "output": {
        "0": {
          "bitwidth": 8,
          "dtype": "uint",
          "is_symmetric": "True",
          "max": 3.670617373660207,
          "min": -3.6995198726654053,
          "offset": -128,
          "scale": 0.02890249900519848
        }
      }
    },
    "model.backbone.res3.3.relu": {
      "input": {
        "0": {
          "bitwidth": 8,
          "dtype": "uint",
          "is_symmetric": "True",
          "max": 1.5526765063405037,
          "min": -1.5649023056030273,
          "offset": -128,
          "scale": 0.012225799262523651
        }
      },
      "output": {
        "0": {
          "bitwidth": 8,
          "dtype": "uint",
          "is_symmetric": "True",
          "max": 3.80928504280746,
          "min": -3.8392794132232666,
          "offset": -128,
          "scale": 0.02999437041580677
        }
      }
    },
    "model.backbone.res3.3.relu_1": {
      "input": {
        "0": {
          "bitwidth": 8,
          "dtype": "uint",
          "is_symmetric": "True",
          "max": 1.677011369727552,
          "min": -1.6902161836624146,
          "offset": -128,
          "scale": 0.013204813934862614
        }
      },
      "output": {
        "0": {
          "bitwidth": 8,
          "dtype": "uint",
          "is_symmetric": "True",
          "max": 3.80928504280746,
          "min": -3.8392794132232666,
          "offset": -128,
          "scale": 0.02999437041580677
        }
      }
    },
    "model.backbone.res3.3.relu_2": {
      "output": {
        "0": {
          "bitwidth": 8,
          "dtype": "uint",
          "is_symmetric": "True",
          "max": 3.80928504280746,
          "min": -3.8392794132232666,
          "offset": -128,
          "scale": 0.02999437041580677
        }
      }
    },
    "model.backbone.res4.0.relu": {
      "input": {
        "0": {
          "bitwidth": 8,
          "dtype": "uint",
          "is_symmetric": "True",
          "max": 2.0094480365514755,
          "min": -2.025270462036133,
          "offset": -128,
          "scale": 0.015822425484657288
        }
      },
      "output": {
        "0": {
          "bitwidth": 8,
          "dtype": "uint",
          "is_symmetric": "True",
          "max": 3.021483289077878,
          "min": -3.045274496078491,
          "offset": -128,
          "scale": 0.023791207000613213
        }
      }
    },
    "model.backbone.res4.0.relu_1": {
      "input": {
        "0": {
          "bitwidth": 8,
          "dtype": "uint",
          "is_symmetric": "True",
          "max": 1.6055997461080551,
          "min": -1.6182422637939453,
          "offset": -128,
          "scale": 0.012642517685890198
        }
      },
      "output": {
        "0": {
          "bitwidth": 8,
          "dtype": "uint",
          "is_symmetric": "True",
          "max": 3.021483289077878,
          "min": -3.045274496078491,
          "offset": -128,
          "scale": 0.023791207000613213
        }
      }
    },
    "model.backbone.res4.0.relu_2": {
      "output": {
        "0": {
          "bitwidth": 8,
          "dtype": "uint",
          "is_symmetric": "True",
          "max": 3.021483289077878,
          "min": -3.045274496078491,
          "offset": -128,
          "scale": 0.023791207000613213
        }
      }
    },
    "model.backbone.res4.1.relu": {
      "input": {
        "0": {
          "bitwidth": 8,
          "dtype": "uint",
          "is_symmetric": "True",
          "max": 1.5401338376104832,
          "min": -1.5522608757019043,
          "offset": -128,
          "scale": 0.012127038091421127
        }
      },
      "output": {
        "0": {
          "bitwidth": 8,
          "dtype": "uint",
          "is_symmetric": "True",
          "max": 3.0778559874743223,
          "min": -3.102091073989868,
          "offset": -128,
          "scale": 0.024235086515545845
        }
      }
    },
    "model.backbone.res4.1.relu_1": {
      "input": {
        "0": {
          "bitwidth": 8,
          "dtype": "uint",
          "is_symmetric": "True",
          "max": 1.6040982073172927,
          "min": -1.6167289018630981,
          "offset": -128,
          "scale": 0.012630694545805454
        }
      },
      "output": {
        "0": {
          "bitwidth": 8,
          "dtype": "uint",
          "is_symmetric": "True",
          "max": 3.0778559874743223,
          "min": -3.102091073989868,
          "offset": -128,
          "scale": 0.024235086515545845
        }
      }
    },
    "model.backbone.res4.1.relu_2": {
      "output": {
        "0": {
          "bitwidth": 8,
          "dtype": "uint",
          "is_symmetric": "True",
          "max": 3.0778559874743223,
          "min": -3.102091073989868,
          "offset": -128,
          "scale": 0.024235086515545845
        }
      }
    },
    "model.backbone.res4.2.relu": {
      "input": {
        "0": {
          "bitwidth": 8,
          "dtype": "uint",
          "is_symmetric": "True",
          "max": 1.421078311279416,
          "min": -1.4322679042816162,
          "offset": -128,
          "scale": 0.011189593002200127
        }
      },
      "output": {
        "0": {
          "bitwidth": 8,
          "dtype": "uint",
          "is_symmetric": "True",
          "max": 3.1695318203419447,
          "min": -3.194488763809204,
          "offset": -128,
          "scale": 0.024956943467259407
        }
      }
    },
    "model.backbone.res4.2.relu_1": {
      "input": {
        "0": {
          "bitwidth": 8,
          "dtype": "uint",
          "is_symmetric": "True",
          "max": 1.039211980998516,
          "min": -1.0473947525024414,
          "offset": -128,
          "scale": 0.008182771503925323
        }
      },
      "output": {
        "0": {
          "bitwidth": 8,
          "dtype": "uint",
          "is_symmetric": "True",
          "max": 3.1695318203419447,
          "min": -3.194488763809204,
          "offset": -128,
          "scale": 0.024956943467259407
        }
      }
    },
    "model.backbone.res4.2.relu_2": {
      "output": {
        "0": {
          "bitwidth": 8,
          "dtype": "uint",
          "is_symmetric": "True",
          "max": 3.1695318203419447,
          "min": -3.194488763809204,
          "offset": -128,
          "scale": 0.024956943467259407
        }
      }
    },
    "model.backbone.res4.3.relu": {
      "input": {
        "0": {
          "bitwidth": 8,
          "dtype": "uint",
          "is_symmetric": "True",
          "max": 1.4028530959039927,
          "min": -1.4138991832733154,
          "offset": -128,
          "scale": 0.011046087369322777
        }
      },
      "output": {
        "0": {
          "bitwidth": 8,
          "dtype": "uint",
          "is_symmetric": "True",
          "max": 3.239527774974704,
          "min": -3.26503586769104,
          "offset": -128,
          "scale": 0.02550809271633625
        }
      }
    },
    "model.backbone.res4.3.relu_1": {
      "input": {
        "0": {
          "bitwidth": 8,
          "dtype": "uint",
          "is_symmetric": "True",
          "max": 1.3073758091777563,
          "min": -1.3176701068878174,
          "offset": -128,
          "scale": 0.010294297710061073
        }
      },
      "output": {
        "0": {
          "bitwidth": 8,
          "dtype": "uint",
          "is_symmetric": "True",
          "max": 3.239527774974704,
          "min": -3.26503586769104,
          "offset": -128,
          "scale": 0.02550809271633625
        }
      }
    },
    "model.backbone.res4.3.relu_2": {
      "output": {
        "0": {
          "bitwidth": 8,
          "dtype": "uint",
          "is_symmetric": "True",
          "max": 3.239527774974704,
          "min": -3.26503586769104,
          "offset": -128,
          "scale": 0.02550809271633625
        }
      }
    },
    "model.backbone.res4.4.relu": {
      "input": {
        "0": {
          "bitwidth": 8,
          "dtype": "uint",
          "is_symmetric": "True",
          "max": 1.3704601908102632,
          "min": -1.3812512159347534,
          "offset": -128,
          "scale": 0.010791025124490261
        }
      },
      "output": {
        "0": {
          "bitwidth": 8,
          "dtype": "uint",
          "is_symmetric": "True",
          "max": 3.283684015274048,
          "min": -3.309539794921875,
          "offset": -128,
          "scale": 0.02585577964782715
        }
      }
    },
    "model.backbone.res4.4.relu_1": {
      "input": {
        "0": {
          "bitwidth": 8,
          "dtype": "uint",
          "is_symmetric": "True",
          "max": 1.438065156340599,
          "min": -1.4493885040283203,
          "offset": -128,
          "scale": 0.011323347687721252
        }
      },
      "output": {
        "0": {
          "bitwidth": 8,
          "dtype": "uint",
          "is_symmetric": "True",
          "max": 3.283684015274048,
          "min": -3.309539794921875,
          "offset": -128,
          "scale": 0.02585577964782715
        }
      }
    },
    "model.backbone.res4.4.relu_2": {
      "output": {
        "0": {
          "bitwidth": 8,
          "dtype": "uint",
          "is_symmetric": "True",
          "max": 3.283684015274048,
          "min": -3.309539794921875,
          "offset": -128,
          "scale": 0.02585577964782715
        }
      }
    },
    "model.backbone.res4.5.relu": {
      "input": {
        "0": {
          "bitwidth": 8,
          "dtype": "uint",
          "is_symmetric": "True",
          "max": 1.267905150540173,
          "min": -1.2778886556625366,
          "offset": -128,
          "scale": 0.009983505122363567
        }
      },
      "output": {
        "0": {
          "bitwidth": 8,
          "dtype": "uint",
          "is_symmetric": "True",
          "max": 3.550200704485178,
          "min": -3.578155040740967,
          "offset": -128,
          "scale": 0.027954336255788803
        }
      }
    },
    "model.backbone.res4.5.relu_1": {
      "input": {
        "0": {
          "bitwidth": 8,
          "dtype": "uint",
          "is_symmetric": "True",
          "max": 1.3298884825780988,
          "min": -1.3403600454330444,
          "offset": -128,
          "scale": 0.01047156285494566
        }
      },
      "output": {
        "0": {
          "bitwidth": 8,
          "dtype": "uint",
          "is_symmetric": "True",
          "max": 3.550200704485178,
          "min": -3.578155040740967,
          "offset": -128,
          "scale": 0.027954336255788803
        }
      }
    },
    "model.backbone.res4.5.relu_2": {
      "output": {
        "0": {
          "bitwidth": 8,
          "dtype": "uint",
          "is_symmetric": "True",
          "max": 3.550200704485178,
          "min": -3.578155040740967,
          "offset": -128,
          "scale": 0.027954336255788803
        }
      }
    },
    "model.backbone.res5.0.relu": {
      "input": {
        "0": {
          "bitwidth": 8,
          "dtype": "uint",
          "is_symmetric": "True",
          "max": 1.5568708796054125,
          "min": -1.5691297054290771,
          "offset": -128,
          "scale": 0.012258825823664665
        }
      },
      "output": {
        "0": {
          "bitwidth": 8,
          "dtype": "uint",
          "is_symmetric": "True",
          "max": 2.5367707181721926,
          "min": -2.5567452907562256,
          "offset": -128,
          "scale": 0.019974572584033012
        }
      }
    },
    "model.backbone.res5.0.relu_1": {
      "input": {
        "0": {
          "bitwidth": 8,
          "dtype": "uint",
          "is_symmetric": "True",
          "max": 1.413887957111001,
          "min": -1.4250209331512451,
          "offset": -128,
          "scale": 0.011132976040244102
        }
      },
      "output": {
        "0": {
          "bitwidth": 8,
          "dtype": "uint",
          "is_symmetric": "True",
          "max": 2.5367707181721926,
          "min": -2.5567452907562256,
          "offset": -128,
          "scale": 0.019974572584033012
        }
      }
    },
    "model.backbone.res5.0.relu_2": {
      "output": {
        "0": {
          "bitwidth": 8,
          "dtype": "uint",
          "is_symmetric": "True",
          "max": 2.5367707181721926,
          "min": -2.5567452907562256,
          "offset": -128,
          "scale": 0.019974572584033012
        }
      }
    },
    "model.backbone.res5.1.relu": {
      "input": {
        "0": {
          "bitwidth": 8,
          "dtype": "uint",
          "is_symmetric": "True",
          "max": 1.3747119288891554,
          "min": -1.3855364322662354,
          "offset": -128,
          "scale": 0.010824503377079964
        }
      },
      "output": {
        "0": {
          "bitwidth": 8,
          "dtype": "uint",
          "is_symmetric": "True",
          "max": 2.4558882229030132,
          "min": -2.4752259254455566,
          "offset": -128,
          "scale": 0.01933770254254341
        }
      }
    },
    "model.backbone.res5.1.relu_1": {
      "input": {
        "0": {
          "bitwidth": 8,
          "dtype": "uint",
          "is_symmetric": "True",
          "max": 1.3079007267951965,
          "min": -1.3181991577148438,
          "offset": -128,
          "scale": 0.010298430919647217
        }
      },
      "output": {
        "0": {
          "bitwidth": 8,
          "dtype": "uint",
          "is_symmetric": "True",
          "max": 2.4558882229030132,
          "min": -2.4752259254455566,
          "offset": -128,
          "scale": 0.01933770254254341
        }
      }
    },
    "model.backbone.res5.1.relu_2": {
      "output": {
        "0": {
          "bitwidth": 8,
          "dtype": "uint",
          "is_symmetric": "True",
          "max": 2.4558882229030132,
          "min": -2.4752259254455566,
          "offset": -128,
          "scale": 0.01933770254254341
        }
      }
    },
    "model.backbone.res5.2.relu": {
      "input": {
        "0": {
          "bitwidth": 8,
          "dtype": "uint",
          "is_symmetric": "True",
          "max": 2.1607210617512465,
          "min": -2.177734613418579,
          "offset": -128,
          "scale": 0.01701355166733265
        }
      },
      "output": {
        "0": {
          "bitwidth": 8,
          "dtype": "uint",
          "is_symmetric": "True",
          "max": 2.4889412373304367,
          "min": -2.5085391998291016,
          "offset": -128,
          "scale": 0.019597962498664856
        }
      }
    },
    "model.backbone.res5.2.relu_1": {
      "input": {
        "0": {
          "bitwidth": 8,
          "dtype": "uint",
          "is_symmetric": "True",
          "max": 1.969254581257701,
          "min": -1.9847605228424072,
          "offset": -128,
          "scale": 0.015505941584706306
        }
      },
      "output": {
        "0": {
          "bitwidth": 8,
          "dtype": "uint",
          "is_symmetric": "True",
          "max": 2.4889412373304367,
          "min": -2.5085391998291016,
          "offset": -128,
          "scale": 0.019597962498664856
        }
      }
    },
    "model.backbone.res5.2.relu_2": {
      "output": {
        "0": {
          "bitwidth": 8,
          "dtype": "uint",
          "is_symmetric": "True",
          "max": 2.4889412373304367,
          "min": -2.5085391998291016,
          "offset": -128,
          "scale": 0.019597962498664856
        }
      }
    },
    "model.semantic_head.project_conv.convs.0": {
      "output": {
        "0": {
          "bitwidth": 8,
          "dtype": "uint",
          "is_symmetric": "True",
          "max": 4.978061784058809,
          "min": -5.017259120941162,
          "offset": -128,
          "scale": 0.03919733688235283
        }
      }
    },
    "model.semantic_head.project_conv.convs.1": {
      "output": {
        "0": {
          "bitwidth": 8,
          "dtype": "uint",
          "is_symmetric": "True",
          "max": 3.824325032532215,
          "min": -3.854437828063965,
          "offset": -128,
          "scale": 0.030112795531749725
        }
      }
    },
    "model.semantic_head.project_conv.convs.2": {
      "output": {
        "0": {
          "bitwidth": 8,
          "dtype": "uint",
          "is_symmetric": "True",
          "max": 2.92821803689003,
          "min": -2.951274871826172,
          "offset": -128,
          "scale": 0.023056834936141968
        }
      }
    },
    "model.semantic_head.project_conv.convs.3": {
      "output": {
        "0": {
          "bitwidth": 8,
          "dtype": "uint",
          "is_symmetric": "True",
          "max": 2.4626719374209642,
          "min": -2.482063055038452,
          "offset": -128,
          "scale": 0.019391117617487907
        }
      }
    },
    "model.semantic_head.project_conv.convs.4.0": {
      "input": {
        "0": {
          "bitwidth": 8,
          "dtype": "uint",
          "is_symmetric": "True",
          "max": 2.4889412373304367,
          "min": -2.5085391998291016,
          "offset": -128,
          "scale": 0.019597962498664856
        }
      },
      "output": {
        "0": {
          "bitwidth": 8,
          "dtype": "uint",
          "is_symmetric": "True",
          "max": 0.4987134295515716,
          "min": -0.5026403069496155,
          "offset": -128,
          "scale": 0.003926877398043871
        }
      }
    },
    "model.semantic_head.project_conv.convs.4.1": {
      "output": {
        "0": {
          "bitwidth": 8,
          "dtype": "uint",
          "is_symmetric": "True",
          "max": 2.186260350048542,
          "min": -2.203474998474121,
          "offset": -128,
          "scale": 0.01721464842557907
        }
      }
    },
    "model.semantic_head.project_conv.project": {
      "output": {
        "0": {
          "bitwidth": 8,
          "dtype": "uint",
          "is_symmetric": "True",
          "max": 3.714072462171316,
          "min": -3.743317127227783,
          "offset": -128,
          "scale": 0.029244665056467056
        }
      }
    },
    "model.semantic_head.project_conv_1": {
      "output": {
        "0": {
          "bitwidth": 8,
          "dtype": "uint",
          "is_symmetric": "True",
          "max": 10.228782668709755,
          "min": -10.309324264526367,
          "offset": -128,
          "scale": 0.08054159581661224
        }
      }
    },
    "model.semantic_head.fuse_conv.0": {
      "output": {
        "0": {
          "bitwidth": 8,
          "dtype": "uint",
          "is_symmetric": "True",
          "max": 11.81656502187252,
          "min": -11.909608840942383,
          "offset": -128,
          "scale": 0.09304381906986237
        }
      }
    },
    "model.semantic_head.fuse_conv.1": {
      "output": {
        "0": {
          "bitwidth": 8,
          "dtype": "uint",
          "is_symmetric": "True",
          "max": 5.237012941390276,
          "min": -5.278249263763428,
          "offset": -128,
          "scale": 0.04123632237315178
        }
      }
    },
    "model.semantic_head.project_conv_2": {
      "output": {
        "0": {
          "bitwidth": 8,
          "dtype": "uint",
          "is_symmetric": "True",
          "max": 13.652894802391529,
          "min": -13.760397911071777,
          "offset": -128,
          "scale": 0.10750310868024826
        }
      }
    },
    "model.semantic_head.fuse_conv.0_1": {
      "output": {
        "0": {
          "bitwidth": 8,
          "dtype": "uint",
          "is_symmetric": "True",
          "max": 7.318968683481216,
          "min": -7.376598358154297,
          "offset": -128,
          "scale": 0.057629674673080444
        }
      }
    },
    "model.semantic_head.fuse_conv.1_1": {
      "output": {
        "0": {
          "bitwidth": 8,
          "dtype": "uint",
          "is_symmetric": "True",
          "max": 13.22778107970953,
          "min": -13.331936836242676,
          "offset": -128,
          "scale": 0.1041557565331459
        }
      }
    },
    "model.semantic_head.head.0": {
      "output": {
        "0": {
          "bitwidth": 8,
          "dtype": "uint",
          "is_symmetric": "True",
          "max": 7.766553800553083,
          "min": -7.827707767486572,
          "offset": -128,
          "scale": 0.061153966933488846
        }
      }
    },
    "model.semantic_head.head.1": {
      "output": {
        "0": {
          "bitwidth": 8,
          "dtype": "uint",
          "is_symmetric": "True",
          "max": 3.760339254513383,
          "min": -3.7899482250213623,
          "offset": -128,
          "scale": 0.029608970507979393
        }
      }
    },
    "model.instance_head.project_conv.convs.0": {
      "output": {
        "0": {
          "bitwidth": 8,
          "dtype": "uint",
          "is_symmetric": "True",
          "max": 7.890823729336262,
          "min": -7.952956199645996,
          "offset": -128,
          "scale": 0.062132470309734344
        }
      }
    },
    "model.instance_head.project_conv.convs.1": {
      "output": {
        "0": {
          "bitwidth": 8,
          "dtype": "uint",
          "is_symmetric": "True",
          "max": 5.162184149026871,
          "min": -5.202831268310547,
          "offset": -128,
          "scale": 0.04064711928367615
        }
      }
    },
    "model.instance_head.project_conv.convs.2": {
      "output": {
        "0": {
          "bitwidth": 8,
          "dtype": "uint",
          "is_symmetric": "True",
          "max": 4.3636654652655125,
          "min": -4.398025035858154,
          "offset": -128,
          "scale": 0.03435957059264183
        }
      }
    },
    "model.instance_head.project_conv.convs.3": {
      "output": {
        "0": {
          "bitwidth": 8,
          "dtype": "uint",
          "is_symmetric": "True",
          "max": 3.6631949581205845,
          "min": -3.6920390129089355,
          "offset": -128,
          "scale": 0.02884405478835106
        }
      }
    },
    "model.instance_head.project_conv.convs.4.0": {
      "input": {
        "0": {
          "bitwidth": 8,
          "dtype": "uint",
          "is_symmetric": "True",
          "max": 2.4889412373304367,
          "min": -2.5085391998291016,
          "offset": -128,
          "scale": 0.019597962498664856
        }
      },
      "output": {
        "0": {
          "bitwidth": 8,
          "dtype": "uint",
          "is_symmetric": "True",
          "max": 0.4987134295515716,
          "min": -0.5026403069496155,
          "offset": -128,
          "scale": 0.003926877398043871
        }
      }
    },
    "model.instance_head.project_conv.convs.4.1": {
      "output": {
        "0": {
          "bitwidth": 8,
          "dtype": "uint",
          "is_symmetric": "True",
          "max": 3.0386101752519608,
          "min": -3.0625362396240234,
          "offset": -128,
          "scale": 0.023926064372062683
        }
      }
    },
    "model.instance_head.project_conv.project": {
      "output": {
        "0": {
          "bitwidth": 8,
          "dtype": "uint",
          "is_symmetric": "True",
          "max": 4.372625257819891,
          "min": -4.407055377960205,
          "offset": -128,
          "scale": 0.0344301201403141
        }
      }
    },
    "model.instance_head.project_conv_1": {
      "output": {
        "0": {
          "bitwidth": 8,
          "dtype": "uint",
          "is_symmetric": "True",
          "max": 6.461928427219391,
          "min": -6.512809753417969,
          "offset": -128,
          "scale": 0.05088132619857788
        }
      }
    },
    "model.instance_head.fuse_conv.0": {
      "output": {
        "0": {
          "bitwidth": 8,
          "dtype": "uint",
          "is_symmetric": "True",
          "max": 5.074858579784632,
          "min": -5.114818096160889,
          "offset": -128,
          "scale": 0.03995951637625694
        }
      }
    },
    "model.instance_head.fuse_conv.1": {
      "output": {
        "0": {
          "bitwidth": 8,
          "dtype": "uint",
          "is_symmetric": "True",
          "max": 7.309225417673588,
          "min": -7.366778373718262,
          "offset": -128,
          "scale": 0.05755295604467392
        }
      }
    },
    "model.instance_head.project_conv_2": {
      "output": {
        "0": {
          "bitwidth": 8,
          "dtype": "uint",
          "is_symmetric": "True",
          "max": 4.3345151506364346,
          "min": -4.368645191192627,
          "offset": -128,
          "scale": 0.0341300405561924
        }
      }
    },
    "model.instance_head.fuse_conv.0_1": {
      "output": {
        "0": {
          "bitwidth": 8,
          "dtype": "uint",
          "is_symmetric": "True",
          "max": 6.971284449100494,
          "min": -7.026176452636719,
          "offset": -128,
          "scale": 0.054892003536224365
        }
      }
    },
    "model.instance_head.fuse_conv.1_1": {
      "output": {
        "0": {
          "bitwidth": 8,
          "dtype": "uint",
          "is_symmetric": "True",
          "max": 10.491883017122746,
          "min": -10.574496269226074,
          "offset": -128,
          "scale": 0.0826132521033287
        }
      }
    },
    "model.instance_head.center_head.0": {
      "output": {
        "0": {
          "bitwidth": 8,
          "dtype": "uint",
          "is_symmetric": "True",
          "max": 13.749834477901459,
          "min": -13.858100891113281,
          "offset": -128,
          "scale": 0.10826641321182251
        }
      }
    },
    "model.instance_head.center_head.1": {
      "output": {
        "0": {
          "bitwidth": 8,
          "dtype": "uint",
          "is_symmetric": "True",
          "max": 5.05321891605854,
          "min": -5.093008041381836,
          "offset": -128,
          "scale": 0.03978912532329559
        }
      }
    },
    "model.instance_head.offset_head.0": {
      "output": {
        "0": {
          "bitwidth": 8,
          "dtype": "uint",
          "is_symmetric": "True",
          "max": 17.643522441387177,
          "min": -17.782447814941406,
          "offset": -128,
          "scale": 0.13892537355422974
        }
      }
    },
    "model.instance_head.offset_head.1": {
      "output": {
        "0": {
          "bitwidth": 8,
          "dtype": "uint",
          "is_symmetric": "True",
          "max": 14.22026190906763,
          "min": -14.332232475280762,
          "offset": -128,
          "scale": 0.11197056621313095
        }
      }
    }
  },
  "excluded_layers": [],
  "param_encodings": {
    "backbone.res2.0.conv1.weight": {
      "bitwidth": 8,
      "dtype": "int",
      "is_symmetric": "True",
      "max": 0.7626814651302993,
      "min": -0.768686830997467,
      "offset": 0,
      "scale": 0.006005365867167711
    },
    "backbone.res2.0.conv2.weight": {
      "bitwidth": 8,
      "dtype": "int",
      "is_symmetric": "True",
      "max": 0.3592282822355628,
      "min": -0.3620568513870239,
      "offset": 0,
      "scale": 0.0028285691514611244
    },
    "backbone.res2.0.conv3.weight": {
      "bitwidth": 8,
      "dtype": "int",
      "is_symmetric": "True",
      "max": 2.163819707930088,
      "min": -2.1808576583862305,
      "offset": 0,
      "scale": 0.017037950456142426
    },
    "backbone.res2.0.shortcut.weight": {
      "bitwidth": 8,
      "dtype": "int",
      "is_symmetric": "True",
      "max": 1.3152162190526724,
      "min": -1.3255722522735596,
      "offset": 0,
      "scale": 0.010356033220887184
    },
    "backbone.res2.1.conv1.weight": {
      "bitwidth": 8,
      "dtype": "int",
      "is_symmetric": "True",
      "max": 0.21386727772187442,
      "min": -0.21555127203464508,
      "offset": 0,
      "scale": 0.0016839943127706647
    },
    "backbone.res2.1.conv2.weight": {
      "bitwidth": 8,
      "dtype": "int",
      "is_symmetric": "True",
      "max": 0.3428101767785847,
      "min": -0.34550946950912476,
      "offset": 0,
      "scale": 0.002699292730540037
    },
    "backbone.res2.1.conv3.weight": {
      "bitwidth": 8,
      "dtype": "int",
      "is_symmetric": "True",
      "max": 1.356059375219047,
      "min": -1.3667370080947876,
      "offset": 0,
      "scale": 0.010677632875740528
    },
    "backbone.res2.2.conv1.weight": {
      "bitwidth": 8,
      "dtype": "int",
      "is_symmetric": "True",
      "max": 0.23444709694013,
      "min": -0.23629313707351685,
      "offset": 0,
      "scale": 0.0018460401333868504
    },
    "backbone.res2.2.conv2.weight": {
      "bitwidth": 8,
      "dtype": "int",
      "is_symmetric": "True",
      "max": 0.5789837772026658,
      "min": -0.5835427045822144,
      "offset": 0,
      "scale": 0.00455892737954855
    },
    "backbone.res2.2.conv3.weight": {
      "bitwidth": 8,
      "dtype": "int",
      "is_symmetric": "True",
      "max": 1.426235230639577,
      "min": -1.4374654293060303,
      "offset": 0,
      "scale": 0.011230198666453362
    },
    "backbone.res3.0.conv1.weight": {
      "bitwidth": 8,
      "dtype": "int",
      "is_symmetric": "True",
      "max": 0.3564513816963881,
      "min": -0.35925808548927307,
      "offset": 0,
      "scale": 0.002806703792884946
    },
    "backbone.res3.0.conv2.weight": {
      "bitwidth": 8,
      "dtype": "int",
      "is_symmetric": "True",
      "max": 0.21824604633729905,
      "min": -0.21996451914310455,
      "offset": 0,
      "scale": 0.0017184728058055043
    },
    "backbone.res3.0.conv3.weight": {
      "bitwidth": 8,
      "dtype": "int",
      "is_symmetric": "True",
      "max": 1.272287822328508,
      "min": -1.2823058366775513,
      "offset": 0,
      "scale": 0.01001801434904337
    },
    "backbone.res3.0.shortcut.weight": {
      "bitwidth": 8,
      "dtype": "int",
      "is_symmetric": "True",
      "max": 0.6994908107444644,
      "min": -0.7049986124038696,
      "offset": 0,
      "scale": 0.0055078016594052315
    },
    "backbone.res3.1.conv1.weight": {
      "bitwidth": 8,
      "dtype": "int",
      "is_symmetric": "True",
      "max": 0.20388630277011544,
      "min": -0.20549170672893524,
      "offset": 0,
      "scale": 0.0016054039588198066
    },
    "backbone.res3.1.conv2.weight": {
      "bitwidth": 8,
      "dtype": "int",
      "is_symmetric": "True",
      "max": 0.5242410083301365,
      "min": -0.5283688902854919,
      "offset": 0,
      "scale": 0.004127881955355406
    },
    "backbone.res3.1.conv3.weight": {
      "bitwidth": 8,
      "dtype": "int",
      "is_symmetric": "True",
      "max": 2.7760446798056364,
      "min": -2.797903299331665,
      "offset": 0,
      "scale": 0.021858619526028633
    },
    "backbone.res3.2.conv1.weight": {
      "bitwidth": 8,
      "dtype": "int",
      "is_symmetric": "True",
      "max": 0.2080601843772456,
      "min": -0.20969845354557037,
      "offset": 0,
      "scale": 0.0016382691683247685
    },
    "backbone.res3.2.conv2.weight": {
      "bitwidth": 8,
      "dtype": "int",
      "is_symmetric": "True",
      "max": 0.22046602028422058,
      "min": -0.22220197319984436,
      "offset": 0,
      "scale": 0.001735952915623784
    },
    "backbone.res3.2.conv3.weight": {
      "bitwidth": 8,
      "dtype": "int",
      "is_symmetric": "True",
      "max": 0.9379973257891834,
      "min": -0.9453831315040588,
      "offset": 0,
      "scale": 0.00738580571487546
    },
    "backbone.res3.3.conv1.weight": {
      "bitwidth": 8,
      "dtype": "int",
      "is_symmetric": "True",
      "max": 0.2002429865533486,
      "min": -0.20181970298290253,
      "offset": 0,
      "scale": 0.001576716429553926
    },
    "backbone.res3.3.conv2.weight": {
      "bitwidth": 8,
      "dtype": "int",
      "is_symmetric": "True",
      "max": 0.2182503486983478,
      "min": -0.21996885538101196,
      "offset": 0,
      "scale": 0.001718506682664156
    },
    "backbone.res3.3.conv3.weight": {
      "bitwidth": 8,
      "dtype": "int",
      "is_symmetric": "True",
      "max": 1.8793591866269708,
      "min": -1.8941572904586792,
      "offset": 0,
      "scale": 0.014798103831708431
    },
    "backbone.res4.0.conv1.weight": {
      "bitwidth": 8,
      "dtype": "int",
      "is_symmetric": "True",
      "max": 0.27824924257583916,
      "min": -0.28044018149375916,
      "offset": 0,
      "scale": 0.0021909389179199934
    },
    "backbone.res4.0.conv2.weight": {
      "bitwidth": 8,
      "dtype": "int",
      "is_symmetric": "True",
      "max": 0.18437868810724467,
      "min": -0.1858304888010025,
      "offset": 0,
      "scale": 0.001451800693757832
    },
    "backbone.res4.0.conv3.weight": {
      "bitwidth": 8,
      "dtype": "int",
      "is_symmetric": "True",
      "max": 0.6425208677537739,
      "min": -0.647580087184906,
      "offset": 0,
      "scale": 0.005059219431132078
    },
    "backbone.res4.0.shortcut.weight": {
      "bitwidth": 8,
      "dtype": "int",
      "is_symmetric": "True",
      "max": 0.3607263613957912,
      "min": -0.36356672644615173,
      "offset": 0,
      "scale": 0.0028403650503605604
    },
    "backbone.res4.1.conv1.weight": {
      "bitwidth": 8,
      "dtype": "int",
      "is_symmetric": "True",
      "max": 0.1646488734986633,
      "min": -0.16594532132148743,
      "offset": 0,
      "scale": 0.0012964478228241205
    },
    "backbone.res4.1.conv2.weight": {
      "bitwidth": 8,
      "dtype": "int",
      "is_symmetric": "True",
      "max": 0.1790984639665112,
      "min": -0.18050868809223175,
      "offset": 0,
      "scale": 0.0014102241257205606
    },
    "backbone.res4.1.conv3.weight": {
      "bitwidth": 8,
      "dtype": "int",
      "is_symmetric": "True",
      "max": 2.2128175385296345,
      "min": -2.230241298675537,
      "offset": 0,
      "scale": 0.017423760145902634
    },
    "backbone.res4.2.conv1.weight": {
      "bitwidth": 8,
      "dtype": "int",
      "is_symmetric": "True",
      "max": 0.14743285009171814,
      "min": -0.1485937386751175,
      "offset": 0,
      "scale": 0.0011608885833993554
    },
    "backbone.res4.2.conv2.weight": {
      "bitwidth": 8,
      "dtype": "int",
      "is_symmetric": "True",
      "max": 0.12533165095373988,
      "min": -0.12631851434707642,
      "offset": 0,
      "scale": 0.0009868633933365345
    },
    "backbone.res4.2.conv3.weight": {
      "bitwidth": 8,
      "dtype": "int",
      "is_symmetric": "True",
      "max": 1.2390905087813735,
      "min": -1.2488471269607544,
      "offset": 0,
      "scale": 0.009756618179380894
    },
    "backbone.res4.3.conv1.weight": {
      "bitwidth": 8,
      "dtype": "int",
      "is_symmetric": "True",
      "max": 0.18154162843711674,
      "min": -0.18297109007835388,
      "offset": 0,
      "scale": 0.0014294616412371397
    },
    "backbone.res4.3.conv2.weight": {
      "bitwidth": 8,
      "dtype": "int",
      "is_symmetric": "True",
      "max": 0.16149769711773843,
      "min": -0.16276933252811432,
      "offset": 0,
      "scale": 0.0012716354103758931
    },
    "backbone.res4.3.conv3.weight": {
      "bitwidth": 8,
      "dtype": "int",
      "is_symmetric": "True",
      "max": 1.0825562430545688,
      "min": -1.0910803079605103,
      "offset": 0,
      "scale": 0.008524064905941486
    },
    "backbone.res4.4.conv1.weight": {
      "bitwidth": 8,
      "dtype": "int",
      "is_symmetric": "True",
      "max": 0.13910529762506485,
      "min": -0.14020061492919922,
      "offset": 0,
      "scale": 0.001095317304134369
    },
    "backbone.res4.4.conv2.weight": {
      "bitwidth": 8,
      "dtype": "int",
      "is_symmetric": "True",
      "max": 0.17068790993653238,
      "min": -0.17203190922737122,
      "offset": 0,
      "scale": 0.0013439992908388376
    },
    "backbone.res4.4.conv3.weight": {
      "bitwidth": 8,
      "dtype": "int",
      "is_symmetric": "True",
      "max": 1.3318649074062705,
      "min": -1.342352032661438,
      "offset": 0,
      "scale": 0.010487125255167484
    },
    "backbone.res4.5.conv1.weight": {
      "bitwidth": 8,
      "dtype": "int",
      "is_symmetric": "True",
      "max": 0.17159019340761006,
      "min": -0.17294129729270935,
      "offset": 0,
      "scale": 0.0013511038850992918
    },
    "backbone.res4.5.conv2.weight": {
      "bitwidth": 8,
      "dtype": "int",
      "is_symmetric": "True",
      "max": 0.183015460614115,
      "min": -0.18445652723312378,
      "offset": 0,
      "scale": 0.0014410666190087795
    },
    "backbone.res4.5.conv3.weight": {
      "bitwidth": 8,
      "dtype": "int",
      "is_symmetric": "True",
      "max": 0.8634989429265261,
      "min": -0.8702981472015381,
      "offset": 0,
      "scale": 0.006799204275012016
    },
    "backbone.res5.0.conv1.weight": {
      "bitwidth": 8,
      "dtype": "int",
      "is_symmetric": "True",
      "max": 0.23359920654911548,
      "min": -0.23543857038021088,
      "offset": 0,
      "scale": 0.0018393638310953975
    },
    "backbone.res5.0.conv2.weight": {
      "bitwidth": 8,
      "dtype": "int",
      "is_symmetric": "True",
      "max": 0.16459057724568993,
      "min": -0.16588656604290009,
      "offset": 0,
      "scale": 0.001295988797210157
    },
    "backbone.res5.0.conv3.weight": {
      "bitwidth": 8,
      "dtype": "int",
      "is_symmetric": "True",
      "max": 1.0171266458928585,
      "min": -1.0251355171203613,
      "offset": 0,
      "scale": 0.008008871227502823
    },
    "backbone.res5.0.shortcut.weight": {
      "bitwidth": 8,
      "dtype": "int",
      "is_symmetric": "True",
      "max": 0.48912014020606875,
      "min": -0.4929714798927307,
      "offset": 0,
      "scale": 0.0038513396866619587
    },
    "backbone.res5.1.conv1.weight": {
      "bitwidth": 8,
      "dtype": "int",
      "is_symmetric": "True",
      "max": 0.11097591405268759,
      "min": -0.11184974014759064,
      "offset": 0,
      "scale": 0.0008738260949030519
    },
    "backbone.res5.1.conv2.weight": {
      "bitwidth": 8,
      "dtype": "int",
      "is_symmetric": "True",
      "max": 0.17249870125669986,
      "min": -0.1738569587469101,
      "offset": 0,
      "scale": 0.0013582574902102351
    },
    "backbone.res5.1.conv3.weight": {
      "bitwidth": 8,
      "dtype": "int",
      "is_symmetric": "True",
      "max": 0.8919309554621577,
      "min": -0.8989540338516235,
      "offset": 0,
      "scale": 0.007023078389465809
    },
    "backbone.res5.2.conv1.weight": {
      "bitwidth": 8,
      "dtype": "int",
      "is_symmetric": "True",
      "max": 0.46985588246025145,
      "min": -0.4735555350780487,
      "offset": 0,
      "scale": 0.0036996526177972555
    },
    "backbone.res5.2.conv2.weight": {
      "bitwidth": 8,
      "dtype": "int",
      "is_symmetric": "True",
      "max": 0.49511139234527946,
      "min": -0.499009907245636,
      "offset": 0,
      "scale": 0.003898514900356531
    },
    "backbone.res5.2.conv3.weight": {
      "bitwidth": 8,
      "dtype": "int",
      "is_symmetric": "True",
      "max": 0.9065919234417379,
      "min": -0.9137304425239563,
      "offset": 0,
      "scale": 0.007138519082218409
    },
    "backbone.stem.conv1.weight": {
      "bitwidth": 8,
      "dtype": "int",
      "is_symmetric": "True",
      "max": 2.4050549548119307,
      "min": -2.423992395401001,
      "offset": 0,
      "scale": 0.01893744058907032
    },
    "backbone.stem.conv2.weight": {
      "bitwidth": 8,
      "dtype": "int",
      "is_symmetric": "True",
      "max": 1.3999865110963583,
      "min": -1.4110100269317627,
      "offset": 0,
      "scale": 0.011023515835404396
    },
    "backbone.stem.conv3.weight": {
      "bitwidth": 8,
      "dtype": "int",
      "is_symmetric": "True",
      "max": 0.3340735451783985,
      "min": -0.3367040455341339,
      "offset": 0,
      "scale": 0.002630500355735421
    },
    "instance_head.center_head.0.weight": {
      "bitwidth": 8,
