{
    "activation_encodings": {
        "model.0.act": {
            "output": {
                "0": {
                    "bitwidth": 8,
                    "dtype": "int",
                    "is_symmetric": "True",
                    "max": 42.65705871582031,
                    "min": -42.992942810058594,
                    "offset": -128,
                    "scale": 0.33588236570358276
                }
            }
        },
        "model.0.conv": {
            "input": {
                "0": {
                    "bitwidth": 8,
                    "dtype": "int",
                    "is_symmetric": "True",
                    "max": 1.0060392618179321,
                    "min": -1.013960838317871,
                    "offset": -128,
                    "scale": 0.007921569049358368
                }
            },
            "output": {
                "0": {
                    "bitwidth": 8,
                    "dtype": "int",
                    "is_symmetric": "True",
                    "max": 57.36639404296875,
                    "min": -57.81809616088867,
                    "offset": -128,
                    "scale": 0.45170387625694275
                }
            }
        },
        "model.1.act": {
            "output": {
                "0": {
                    "bitwidth": 8,
                    "dtype": "int",
                    "is_symmetric": "True",
                    "max": 43.0728874206543,
                    "min": -43.412044525146484,
                    "offset": -128,
                    "scale": 0.3391565978527069
                }
            }
        },
        "model.1.conv": {
            "output": {
                "0": {
                    "bitwidth": 8,
                    "dtype": "int",
                    "is_symmetric": "True",
                    "max": 57.55580139160156,
                    "min": -58.008995056152344,
                    "offset": -128,
                    "scale": 0.4531952738761902
                }
            }
        },
        "model.10": {
            "output": {
                "0": {
                    "bitwidth": 8,
                    "dtype": "int",
                    "is_symmetric": "True",
                    "max": 8.178916931152344,
                    "min": -8.243317604064941,
                    "offset": -128,
                    "scale": 0.06440091878175735
                }
            }
        },
        "model.12.cv1.act": {
            "output": {
                "0": {
                    "bitwidth": 8,
                    "dtype": "int",
                    "is_symmetric": "True",
                    "max": 8.28099250793457,
                    "min": -8.346197128295898,
                    "offset": -128,
                    "scale": 0.0652046650648117
                }
            }
        },
        "model.12.cv1.conv": {
            "input": {
                "0": {
                    "bitwidth": 8,
                    "dtype": "int",
                    "is_symmetric": "True",
                    "max": 6.9520792961120605,
                    "min": -7.006820201873779,
                    "offset": -128,
                    "scale": 0.0547407828271389
                }
            },
            "output": {
                "0": {
                    "bitwidth": 8,
                    "dtype": "int",
                    "is_symmetric": "True",
                    "max": 8.105186462402344,
                    "min": -8.16900634765625,
                    "offset": -128,
                    "scale": 0.06382036209106445
                }
            }
        },
        "model.12.cv2.act": {
            "output": {
                "0": {
                    "bitwidth": 8,
                    "dtype": "int",
                    "is_symmetric": "True",
                    "max": 5.746889114379883,
                    "min": -5.792140007019043,
                    "offset": -128,
                    "scale": 0.04525109380483627
                }
            }
        },
        "model.12.cv2.conv": {
            "input": {
                "0": {
                    "bitwidth": 8,
                    "dtype": "int",
                    "is_symmetric": "True",
                    "max": 8.237765312194824,
                    "min": -8.302629470825195,
                    "offset": -128,
                    "scale": 0.06486429274082184
                }
            },
            "output": {
                "0": {
                    "bitwidth": 8,
                    "dtype": "int",
                    "is_symmetric": "True",
                    "max": 10.752263069152832,
                    "min": -10.836926460266113,
                    "offset": -128,
                    "scale": 0.08466348797082901
                }
            }
        },
        "model.12.m.0.cv1.act": {
            "output": {
                "0": {
                    "bitwidth": 8,
                    "dtype": "int",
                    "is_symmetric": "True",
                    "max": 6.573350429534912,
                    "min": -6.6251091957092285,
                    "offset": -128,
                    "scale": 0.05175866559147835
                }
            }
        },
        "model.12.m.0.cv1.conv": {
            "output": {
                "0": {
                    "bitwidth": 8,
                    "dtype": "int",
                    "is_symmetric": "True",
                    "max": 8.114676475524902,
                    "min": -8.178571701049805,
                    "offset": -128,
                    "scale": 0.0638950914144516
                }
            }
        },
        "model.12.m.0.cv2.act": {
            "output": {
                "0": {
                    "bitwidth": 8,
                    "dtype": "int",
                    "is_symmetric": "True",
                    "max": 8.237765312194824,
                    "min": -8.302629470825195,
                    "offset": -128,
                    "scale": 0.06486429274082184
                }
            }
        },
        "model.12.m.0.cv2.conv": {
            "output": {
                "0": {
                    "bitwidth": 8,
                    "dtype": "int",
                    "is_symmetric": "True",
                    "max": 8.639086723327637,
                    "min": -8.707111358642578,
                    "offset": -128,
                    "scale": 0.06802430748939514
                }
            }
        },
        "model.13": {
            "output": {
                "0": {
                    "bitwidth": 8,
                    "dtype": "int",
                    "is_symmetric": "True",
                    "max": 5.746889114379883,
                    "min": -5.792140007019043,
                    "offset": -128,
                    "scale": 0.04525109380483627
                }
            }
        },
        "model.15.cv1.act": {
            "output": {
                "0": {
                    "bitwidth": 8,
                    "dtype": "int",
                    "is_symmetric": "True",
                    "max": 4.209658622741699,
                    "min": -4.242805480957031,
                    "offset": -128,
                    "scale": 0.03314691781997681
                }
            }
        },
        "model.15.cv1.conv": {
            "input": {
                "0": {
                    "bitwidth": 8,
                    "dtype": "int",
                    "is_symmetric": "True",
                    "max": 6.84890604019165,
                    "min": -6.902834415435791,
                    "offset": -128,
                    "scale": 0.05392839387059212
                }
            },
            "output": {
                "0": {
                    "bitwidth": 8,
                    "dtype": "int",
                    "is_symmetric": "True",
                    "max": 6.501688003540039,
                    "min": -6.552882194519043,
                    "offset": -128,
                    "scale": 0.05119439214468002
                }
            }
        },
        "model.15.cv2.act": {
            "output": {
                "0": {
                    "bitwidth": 8,
                    "dtype": "int",
                    "is_symmetric": "True",
                    "max": 3.7916972637176514,
                    "min": -3.8215532302856445,
                    "offset": -128,
                    "scale": 0.029855884611606598
                }
            }
        },
        "model.15.cv2.conv": {
            "input": {
                "0": {
                    "bitwidth": 8,
                    "dtype": "int",
                    "is_symmetric": "True",
                    "max": 4.913618564605713,
                    "min": -4.952308654785156,
                    "offset": -128,
                    "scale": 0.03868991136550903
                }
            },
            "output": {
                "0": {
                    "bitwidth": 8,
                    "dtype": "int",
                    "is_symmetric": "True",
                    "max": 7.505162715911865,
                    "min": -7.564258575439453,
                    "offset": -128,
                    "scale": 0.05909577012062073
                }
            }
        },
        "model.15.m.0.cv1.act": {
            "output": {
                "0": {
                    "bitwidth": 8,
                    "dtype": "int",
                    "is_symmetric": "True",
                    "max": 4.258827209472656,
                    "min": -4.292361259460449,
                    "offset": -128,
                    "scale": 0.03353407233953476
                }
            }
        },
        "model.15.m.0.cv1.conv": {
            "output": {
                "0": {
                    "bitwidth": 8,
                    "dtype": "int",
                    "is_symmetric": "True",
                    "max": 5.705016136169434,
                    "min": -5.749937534332275,
                    "offset": -128,
                    "scale": 0.0449213869869709
                }
            }
        },
        "model.15.m.0.cv2.act": {
            "output": {
                "0": {
                    "bitwidth": 8,
                    "dtype": "int",
                    "is_symmetric": "True",
                    "max": 5.615564346313477,
                    "min": -5.659781455993652,
                    "offset": -128,
                    "scale": 0.04421704262495041
                }
            }
        },
        "model.15.m.0.cv2.conv": {
            "output": {
                "0": {
                    "bitwidth": 8,
                    "dtype": "int",
                    "is_symmetric": "True",
                    "max": 7.781345844268799,
                    "min": -7.842616081237793,
                    "offset": -128,
                    "scale": 0.06127043813467026
                }
            }
        },
        "model.16.act": {
            "output": {
                "0": {
                    "bitwidth": 8,
                    "dtype": "int",
                    "is_symmetric": "True",
                    "max": 6.6293230056762695,
                    "min": -6.681522369384766,
                    "offset": -128,
                    "scale": 0.05219939351081848
                }
            }
        },
        "model.16.conv": {
            "output": {
                "0": {
                    "bitwidth": 8,
                    "dtype": "int",
                    "is_symmetric": "True",
                    "max": 7.799219608306885,
                    "min": -7.860630989074707,
                    "offset": -128,
                    "scale": 0.06141117960214615
                }
            }
        },
        "model.18.cv1.act": {
            "output": {
                "0": {
                    "bitwidth": 8,
                    "dtype": "int",
                    "is_symmetric": "True",
                    "max": 6.934535503387451,
                    "min": -6.989138126373291,
                    "offset": -128,
                    "scale": 0.054602641612291336
                }
            }
        },
        "model.18.cv1.conv": {
            "input": {
                "0": {
                    "bitwidth": 8,
                    "dtype": "int",
                    "is_symmetric": "True",
                    "max": 6.6293230056762695,
                    "min": -6.681522369384766,
                    "offset": -128,
                    "scale": 0.05219939351081848
                }
            },
            "output": {
                "0": {
                    "bitwidth": 8,
                    "dtype": "int",
                    "is_symmetric": "True",
                    "max": 8.394170761108398,
                    "min": -8.460267066955566,
                    "offset": -128,
                    "scale": 0.06609583646059036
                }
            }
        },
        "model.18.cv2.act": {
            "output": {
                "0": {
                    "bitwidth": 8,
                    "dtype": "int",
                    "is_symmetric": "True",
                    "max": 6.954166889190674,
                    "min": -7.0089240074157715,
                    "offset": -128,
                    "scale": 0.054757218807935715
                }
            }
        },
        "model.18.cv2.conv": {
            "input": {
                "0": {
                    "bitwidth": 8,
                    "dtype": "int",
                    "is_symmetric": "True",
                    "max": 8.68972396850586,
                    "min": -8.758147239685059,
                    "offset": -128,
                    "scale": 0.06842302531003952
                }
            },
            "output": {
                "0": {
                    "bitwidth": 8,
                    "dtype": "int",
                    "is_symmetric": "True",
                    "max": 20.184112548828125,
                    "min": -20.343042373657227,
                    "offset": -128,
                    "scale": 0.15893001854419708
                }
            }
        },
        "model.18.m.0.cv1.act": {
            "output": {
                "0": {
                    "bitwidth": 8,
                    "dtype": "int",
                    "is_symmetric": "True",
                    "max": 5.580165863037109,
                    "min": -5.624104022979736,
                    "offset": -128,
                    "scale": 0.04393831267952919
                }
            }
        },
        "model.18.m.0.cv1.conv": {
            "output": {
                "0": {
                    "bitwidth": 8,
                    "dtype": "int",
                    "is_symmetric": "True",
                    "max": 8.165817260742188,
                    "min": -8.230114936828613,
                    "offset": -128,
                    "scale": 0.06429777294397354
                }
            }
        },
        "model.18.m.0.cv2.act": {
            "output": {
                "0": {
                    "bitwidth": 8,
                    "dtype": "int",
                    "is_symmetric": "True",
                    "max": 10.657208442687988,
                    "min": -10.74112319946289,
                    "offset": -128,
                    "scale": 0.08391502499580383
                }
            }
        },
        "model.18.m.0.cv2.conv": {
            "output": {
                "0": {
                    "bitwidth": 8,
                    "dtype": "int",
                    "is_symmetric": "True",
                    "max": 11.018550872802734,
                    "min": -11.105311393737793,
                    "offset": -128,
                    "scale": 0.08676024526357651
                }
            }
        },
        "model.19.act": {
            "output": {
                "0": {
                    "bitwidth": 8,
                    "dtype": "int",
                    "is_symmetric": "True",
                    "max": 6.6373515129089355,
                    "min": -6.689614295959473,
                    "offset": -128,
                    "scale": 0.05226261168718338
                }
            }
        },
        "model.19.conv": {
            "output": {
                "0": {
                    "bitwidth": 8,
                    "dtype": "int",
                    "is_symmetric": "True",
                    "max": 9.665608406066895,
                    "min": -9.741715431213379,
                    "offset": -128,
                    "scale": 0.07610715180635452
                }
            }
        },
        "model.2.cv1.act": {
            "output": {
                "0": {
                    "bitwidth": 8,
                    "dtype": "int",
                    "is_symmetric": "True",
                    "max": 14.55406379699707,
                    "min": -14.668663024902344,
                    "offset": -128,
                    "scale": 0.11459892988204956
                }
            }
        },
        "model.2.cv1.conv": {
            "output": {
                "0": {
                    "bitwidth": 8,
                    "dtype": "int",
                    "is_symmetric": "True",
                    "max": 42.10551834106445,
                    "min": -42.43705749511719,
                    "offset": -128,
                    "scale": 0.331539511680603
                }
            }
        },
        "model.2.cv2.act": {
            "output": {
                "0": {
                    "bitwidth": 8,
                    "dtype": "int",
                    "is_symmetric": "True",
                    "max": 8.360054969787598,
                    "min": -8.425882339477539,
                    "offset": -128,
                    "scale": 0.06582720577716827
                }
            }
        },
        "model.2.cv2.conv": {
            "input": {
                "0": {
                    "bitwidth": 8,
                    "dtype": "int",
                    "is_symmetric": "True",
                    "max": 16.239717483520508,
                    "min": -16.367589950561523,
                    "offset": -128,
                    "scale": 0.1278717964887619
                }
            },
            "output": {
                "0": {
                    "bitwidth": 8,
                    "dtype": "int",
                    "is_symmetric": "True",
                    "max": 14.254093170166016,
                    "min": -14.36633014678955,
                    "offset": -128,
                    "scale": 0.11223695427179337
                }
            }
        },
        "model.2.m.0.cv1.act": {
            "output": {
                "0": {
                    "bitwidth": 8,
                    "dtype": "int",
                    "is_symmetric": "True",
                    "max": 25.387723922729492,
                    "min": -25.587627410888672,
                    "offset": -128,
                    "scale": 0.19990333914756775
                }
            }
        },
        "model.2.m.0.cv1.conv": {
            "output": {
                "0": {
                    "bitwidth": 8,
                    "dtype": "int",
                    "is_symmetric": "True",
                    "max": 27.910110473632812,
                    "min": -28.12987518310547,
                    "offset": -128,
                    "scale": 0.21976464986801147
                }
            }
        },
        "model.2.m.0.cv2.act": {
            "output": {
                "0": {
                    "bitwidth": 8,
                    "dtype": "int",
                    "is_symmetric": "True",
                    "max": 15.812529563903809,
                    "min": -15.937037467956543,
                    "offset": -128,
                    "scale": 0.12450810521841049
                }
            }
        },
        "model.2.m.0.cv2.conv": {
            "output": {
                "0": {
                    "bitwidth": 8,
                    "dtype": "int",
                    "is_symmetric": "True",
                    "max": 25.698137283325195,
                    "min": -25.900484085083008,
                    "offset": -128,
                    "scale": 0.202347531914711
                }
            }
        },
        "model.21.cv1.act": {
            "output": {
                "0": {
                    "bitwidth": 8,
                    "dtype": "int",
                    "is_symmetric": "True",
                    "max": 8.236589431762695,
                    "min": -8.301444053649902,
                    "offset": -128,
                    "scale": 0.06485503166913986
                }
            }
        },
        "model.21.cv1.conv": {
            "input": {
                "0": {
                    "bitwidth": 8,
                    "dtype": "int",
                    "is_symmetric": "True",
                    "max": 6.9520792961120605,
                    "min": -7.006820201873779,
                    "offset": -128,
                    "scale": 0.0547407828271389
                }
            },
            "output": {
                "0": {
                    "bitwidth": 8,
                    "dtype": "int",
                    "is_symmetric": "True",
                    "max": 8.804131507873535,
                    "min": -8.873455047607422,
                    "offset": -128,
                    "scale": 0.06932386755943298
                }
            }
        },
        "model.21.cv2.act": {
            "output": {
                "0": {
                    "bitwidth": 8,
                    "dtype": "int",
                    "is_symmetric": "True",
                    "max": 8.040002822875977,
                    "min": -8.103309631347656,
                    "offset": -128,
                    "scale": 0.06330710649490356
                }
            }
        },
        "model.21.cv2.conv": {
            "input": {
                "0": {
                    "bitwidth": 8,
                    "dtype": "int",
                    "is_symmetric": "True",
                    "max": 11.255364418029785,
                    "min": -11.343989372253418,
                    "offset": -128,
                    "scale": 0.08862491697072983
                }
            },
            "output": {
                "0": {
                    "bitwidth": 8,
                    "dtype": "int",
                    "is_symmetric": "True",
                    "max": 15.401979446411133,
                    "min": -15.523255348205566,
                    "offset": -128,
                    "scale": 0.12127543240785599
                }
            }
        },
        "model.21.m.0.cv1.act": {
            "output": {
                "0": {
                    "bitwidth": 8,
                    "dtype": "int",
                    "is_symmetric": "True",
                    "max": 6.649707794189453,
                    "min": -6.702067852020264,
                    "offset": -128,
                    "scale": 0.05235990509390831
                }
            }
        },
        "model.21.m.0.cv1.conv": {
            "output": {
                "0": {
                    "bitwidth": 8,
                    "dtype": "int",
                    "is_symmetric": "True",
                    "max": 8.927536964416504,
                    "min": -8.997832298278809,
                    "offset": -128,
                    "scale": 0.07029556483030319
                }
            }
        },
        "model.21.m.0.cv2.act": {
            "output": {
                "0": {
                    "bitwidth": 8,
                    "dtype": "int",
                    "is_symmetric": "True",
                    "max": 11.485066413879395,
                    "min": -11.575499534606934,
                    "offset": -128,
                    "scale": 0.09043359011411667
                }
            }
        },
        "model.21.m.0.cv2.conv": {
            "output": {
                "0": {
                    "bitwidth": 8,
                    "dtype": "int",
                    "is_symmetric": "True",
                    "max": 12.403870582580566,
                    "min": -12.50153923034668,
                    "offset": -128,
                    "scale": 0.09766827523708344
                }
            }
        },
        "model.22.cv2.0.0.act": {
            "output": {
                "0": {
                    "bitwidth": 8,
                    "dtype": "int",
                    "is_symmetric": "True",
                    "max": 8.216899871826172,
                    "min": -8.281599998474121,
                    "offset": -128,
                    "scale": 0.06469999998807907
                }
            }
        },
        "model.22.cv2.0.0.conv": {
            "output": {
                "0": {
                    "bitwidth": 8,
                    "dtype": "int",
                    "is_symmetric": "True",
                    "max": 12.314188957214355,
                    "min": -12.411150932312012,
                    "offset": -128,
                    "scale": 0.09696211665868759
                }
            }
        },
        "model.22.cv2.0.1.act": {
            "output": {
                "0": {
                    "bitwidth": 8,
                    "dtype": "int",
                    "is_symmetric": "True",
                    "max": 34.92259979248047,
                    "min": -35.19758224487305,
                    "offset": -128,
                    "scale": 0.2749811112880707
                }
            }
        },
        "model.22.cv2.0.1.conv": {
            "output": {
                "0": {
                    "bitwidth": 8,
                    "dtype": "int",
                    "is_symmetric": "True",
                    "max": 36.698326110839844,
                    "min": -36.98728942871094,
                    "offset": -128,
                    "scale": 0.2889631986618042
                }
            }
        },
        "model.22.cv2.0.2": {
            "output": {
                "0": {
                    "bitwidth": 8,
                    "dtype": "int",
                    "is_symmetric": "True",
                    "max": 15.663312911987305,
                    "min": -15.786645889282227,
                    "offset": -128,
                    "scale": 0.1233331710100174
                }
            }
        },
        "model.22.cv2.1.0.act": {
            "output": {
                "0": {
                    "bitwidth": 8,
                    "dtype": "int",
                    "is_symmetric": "True",
                    "max": 8.424332618713379,
                    "min": -8.490666389465332,
                    "offset": -128,
                    "scale": 0.0663333311676979
                }
            }
        },
        "model.22.cv2.1.0.conv": {
            "output": {
                "0": {
                    "bitwidth": 8,
                    "dtype": "int",
                    "is_symmetric": "True",
                    "max": 13.155384063720703,
                    "min": -13.2589693069458,
                    "offset": -128,
                    "scale": 0.10358569771051407
                }
            }
        },
        "model.22.cv2.1.1.act": {
            "output": {
                "0": {
                    "bitwidth": 8,
                    "dtype": "int",
                    "is_symmetric": "True",
                    "max": 35.4575309753418,
                    "min": -35.736724853515625,
                    "offset": -128,
                    "scale": 0.2791931629180908
                }
            }
        },
        "model.22.cv2.1.1.conv": {
            "output": {
                "0": {
                    "bitwidth": 8,
                    "dtype": "int",
                    "is_symmetric": "True",
                    "max": 34.370323181152344,
                    "min": -34.64095687866211,
                    "offset": -128,
                    "scale": 0.27063247561454773
                }
            }
        },
        "model.22.cv2.1.2": {
            "output": {
                "0": {
                    "bitwidth": 8,
                    "dtype": "int",
                    "is_symmetric": "True",
                    "max": 13.20572280883789,
                    "min": -13.309704780578613,
                    "offset": -128,
                    "scale": 0.10398206859827042
                }
            }
        },
        "model.22.cv2.2.0.act": {
            "output": {
                "0": {
                    "bitwidth": 8,
                    "dtype": "int",
                    "is_symmetric": "True",
                    "max": 11.04298210144043,
                    "min": -11.129934310913086,
                    "offset": -128,
                    "scale": 0.08695261180400848
                }
            }
        },
        "model.22.cv2.2.0.conv": {
            "output": {
                "0": {
                    "bitwidth": 8,
                    "dtype": "int",
                    "is_symmetric": "True",
                    "max": 13.168020248413086,
                    "min": -13.271705627441406,
                    "offset": -128,
                    "scale": 0.10368520021438599
                }
            }
        },
        "model.22.cv2.2.1.act": {
            "output": {
                "0": {
                    "bitwidth": 8,
                    "dtype": "int",
                    "is_symmetric": "True",
                    "max": 26.827068328857422,
                    "min": -27.038305282592773,
                    "offset": -128,
                    "scale": 0.21123676002025604
                }
            }
        },
        "model.22.cv2.2.1.conv": {
            "output": {
                "0": {
                    "bitwidth": 8,
                    "dtype": "int",
                    "is_symmetric": "True",
                    "max": 25.28672981262207,
                    "min": -25.485837936401367,
                    "offset": -128,
                    "scale": 0.19910810887813568
                }
            }
        },
        "model.22.cv2.2.2": {
            "output": {
                "0": {
                    "bitwidth": 8,
                    "dtype": "int",
                    "is_symmetric": "True",
                    "max": 12.441370964050293,
                    "min": -12.539334297180176,
                    "offset": -128,
                    "scale": 0.09796354919672012
                }
            }
        },
        "model.22.cv3.0.0.act": {
            "output": {
                "0": {
                    "bitwidth": 8,
                    "dtype": "int",
                    "is_symmetric": "True",
                    "max": 5.748668670654297,
                    "min": -5.793933868408203,
                    "offset": -128,
                    "scale": 0.04526510834693909
                }
            }
        },
        "model.22.cv3.0.0.conv": {
            "output": {
                "0": {
                    "bitwidth": 8,
                    "dtype": "int",
                    "is_symmetric": "True",
                    "max": 10.998407363891602,
                    "min": -11.08500862121582,
                    "offset": -128,
                    "scale": 0.0866016298532486
                }
            }
        },
        "model.22.cv3.0.1.act": {
            "output": {
                "0": {
                    "bitwidth": 8,
                    "dtype": "int",
                    "is_symmetric": "True",
                    "max": 49.74478530883789,
                    "min": -50.136478424072266,
                    "offset": -128,
                    "scale": 0.3916912376880646
                }
            }
        },
        "model.22.cv3.0.1.conv": {
            "output": {
                "0": {
                    "bitwidth": 8,
                    "dtype": "int",
                    "is_symmetric": "True",
                    "max": 52.89094161987305,
                    "min": -53.30740737915039,
                    "offset": -128,
                    "scale": 0.4164641201496124
                }
            }
        },
        "model.22.cv3.0.2": {
            "output": {
                "0": {
                    "bitwidth": 8,
                    "dtype": "int",
                    "is_symmetric": "True",
                    "max": 27.3809757232666,
                    "min": -27.596574783325195,
                    "offset": -128,
                    "scale": 0.2155982404947281
                }
            }
        },
        "model.22.cv3.1.0.act": {
            "output": {
                "0": {
                    "bitwidth": 8,
                    "dtype": "int",
                    "is_symmetric": "True",
                    "max": 8.376534461975098,
                    "min": -8.44249153137207,
                    "offset": -128,
                    "scale": 0.0659569650888443
                }
            }
        },
        "model.22.cv3.1.0.conv": {
            "output": {
                "0": {
                    "bitwidth": 8,
                    "dtype": "int",
                    "is_symmetric": "True",
                    "max": 17.76713752746582,
                    "min": -17.90703582763672,
                    "offset": -128,
                    "scale": 0.13989871740341187
                }
            }
        },
        "model.22.cv3.1.1.act": {
            "output": {
                "0": {
                    "bitwidth": 8,
                    "dtype": "int",
                    "is_symmetric": "True",
                    "max": 61.99283981323242,
                    "min": -62.48097229003906,
                    "offset": -128,
                    "scale": 0.4881325960159302
                }
            }
        },
        "model.22.cv3.1.1.conv": {
            "output": {
                "0": {
                    "bitwidth": 8,
                    "dtype": "int",
                    "is_symmetric": "True",
                    "max": 61.99283981323242,
                    "min": -62.48097229003906,
                    "offset": -128,
                    "scale": 0.4881325960159302
                }
            }
        },
        "model.22.cv3.1.2": {
            "output": {
                "0": {
                    "bitwidth": 8,
                    "dtype": "int",
                    "is_symmetric": "True",
                    "max": 37.87480926513672,
                    "min": -38.17303466796875,
                    "offset": -128,
                    "scale": 0.29822683334350586
                }
            }
        },
        "model.22.cv3.2.0.act": {
            "output": {
                "0": {
                    "bitwidth": 8,
                    "dtype": "int",
                    "is_symmetric": "True",
                    "max": 10.85802936553955,
                    "min": -10.943525314331055,
                    "offset": -128,
                    "scale": 0.08549629151821136
                }
            }
        },
        "model.22.cv3.2.0.conv": {
            "output": {
                "0": {
                    "bitwidth": 8,
                    "dtype": "int",
                    "is_symmetric": "True",
                    "max": 21.09113883972168,
                    "min": -21.257211685180664,
                    "offset": -128,
                    "scale": 0.16607196629047394
                }
            }
        },
        "model.22.cv3.2.1.act": {
            "output": {
                "0": {
                    "bitwidth": 8,
                    "dtype": "int",
                    "is_symmetric": "True",
                    "max": 62.365745544433594,
                    "min": -62.856815338134766,
                    "offset": -128,
                    "scale": 0.49106886982917786
                }
            }
        },
        "model.22.cv3.2.1.conv": {
            "output": {
                "0": {
                    "bitwidth": 8,
                    "dtype": "int",
                    "is_symmetric": "True",
                    "max": 57.309059143066406,
                    "min": -57.760311126708984,
                    "offset": -128,
                    "scale": 0.45125243067741394
                }
            }
        },
        "model.22.cv3.2.2": {
            "output": {
                "0": {
                    "bitwidth": 8,
                    "dtype": "int",
                    "is_symmetric": "True",
                    "max": 46.3358039855957,
                    "min": -46.700653076171875,
                    "offset": -128,
                    "scale": 0.3648488521575928
                }
            }
        },
        "model.3.act": {
            "output": {
                "0": {
                    "bitwidth": 8,
                    "dtype": "int",
                    "is_symmetric": "True",
                    "max": 5.6646928787231445,
                    "min": -5.709296703338623,
                    "offset": -128,
                    "scale": 0.04460388049483299
                }
            }
        },
        "model.3.conv": {
            "output": {
                "0": {
                    "bitwidth": 8,
                    "dtype": "int",
                    "is_symmetric": "True",
                    "max": 6.883554458618164,
                    "min": -6.937755584716797,
                    "offset": -128,
                    "scale": 0.054201215505599976
                }
            }
        },
        "model.4.cv1.act": {
            "output": {
                "0": {
                    "bitwidth": 8,
                    "dtype": "int",
                    "is_symmetric": "True",
                    "max": 4.823999404907227,
                    "min": -4.861983776092529,
                    "offset": -128,
                    "scale": 0.037984248250722885
                }
            }
        },
        "model.4.cv1.conv": {
            "output": {
                "0": {
                    "bitwidth": 8,
                    "dtype": "int",
                    "is_symmetric": "True",
                    "max": 7.9261956214904785,
                    "min": -7.9886064529418945,
                    "offset": -128,
                    "scale": 0.06241098791360855
                }
            }
        },
        "model.4.cv2.act": {
            "output": {
                "0": {
                    "bitwidth": 8,
                    "dtype": "int",
                    "is_symmetric": "True",
                    "max": 6.84890604019165,
                    "min": -6.902834415435791,
                    "offset": -128,
                    "scale": 0.05392839387059212
                }
            }
        },
        "model.4.cv2.conv": {
            "input": {
                "0": {
                    "bitwidth": 8,
                    "dtype": "int",
                    "is_symmetric": "True",
                    "max": 7.665344715118408,
                    "min": -7.725701808929443,
                    "offset": -128,
                    "scale": 0.060357045382261276
                }
            },
            "output": {
                "0": {
                    "bitwidth": 8,
                    "dtype": "int",
                    "is_symmetric": "True",
                    "max": 7.827327251434326,
                    "min": -7.888959884643555,
                    "offset": -128,
                    "scale": 0.06163249909877777
                }
            }
        },
        "model.4.m.0.cv1.act": {
            "output": {
                "0": {
                    "bitwidth": 8,
                    "dtype": "int",
                    "is_symmetric": "True",
                    "max": 4.925386905670166,
                    "min": -4.964169502258301,
                    "offset": -128,
                    "scale": 0.038782574236392975
                }
            }
        },
        "model.4.m.0.cv1.conv": {
            "output": {
                "0": {
                    "bitwidth": 8,
                    "dtype": "int",
                    "is_symmetric": "True",
                    "max": 7.141841411590576,
                    "min": -7.198076248168945,
                    "offset": -128,
                    "scale": 0.056234970688819885
                }
            }
        },
        "model.4.m.0.cv2.act": {
            "output": {
                "0": {
                    "bitwidth": 8,
                    "dtype": "int",
                    "is_symmetric": "True",
                    "max": 4.839024066925049,
                    "min": -4.877126693725586,
                    "offset": -128,
                    "scale": 0.03810255229473114
                }
            }
        },
        "model.4.m.0.cv2.conv": {
            "output": {
                "0": {
                    "bitwidth": 8,
                    "dtype": "int",
                    "is_symmetric": "True",
                    "max": 6.8849968910217285,
                    "min": -6.939209461212158,
                    "offset": -128,
                    "scale": 0.054212573915719986
                }
            }
        },
        "model.4.m.1.cv1.act": {
            "output": {
                "0": {
                    "bitwidth": 8,
                    "dtype": "int",
                    "is_symmetric": "True",
                    "max": 4.2447710037231445,
                    "min": -4.278194427490234,
                    "offset": -128,
                    "scale": 0.033423393964767456
                }
            }
        },
        "model.4.m.1.cv1.conv": {
            "input": {
                "0": {
                    "bitwidth": 8,
                    "dtype": "int",
                    "is_symmetric": "True",
                    "max": 4.908276557922363,
                    "min": -4.946924209594727,
                    "offset": -128,
                    "scale": 0.0386478453874588
                }
            },
            "output": {
                "0": {
                    "bitwidth": 8,
                    "dtype": "int",
                    "is_symmetric": "True",
                    "max": 6.155063152313232,
                    "min": -6.20352840423584,
                    "offset": -128,
                    "scale": 0.0484650656580925
                }
            }
        },
        "model.4.m.1.cv2.act": {
            "output": {
                "0": {
                    "bitwidth": 8,
                    "dtype": "int",
                    "is_symmetric": "True",
                    "max": 7.141158580780029,
                    "min": -7.197388172149658,
                    "offset": -128,
                    "scale": 0.056229595094919205
                }
            }
        },
        "model.4.m.1.cv2.conv": {
            "output": {
                "0": {
                    "bitwidth": 8,
                    "dtype": "int",
                    "is_symmetric": "True",
                    "max": 8.85571575164795,
                    "min": -8.925445556640625,
                    "offset": -128,
                    "scale": 0.06973004341125488
                }
            }
        },
        "model.5.act": {
            "output": {
                "0": {
                    "bitwidth": 8,
                    "dtype": "int",
                    "is_symmetric": "True",
                    "max": 5.548915863037109,
                    "min": -5.5926079750061035,
                    "offset": -128,
                    "scale": 0.043692249804735184
                }
            }
        },
        "model.5.conv": {
            "output": {
                "0": {
                    "bitwidth": 8,
                    "dtype": "int",
                    "is_symmetric": "True",
                    "max": 7.495936393737793,
                    "min": -7.554959297180176,
                    "offset": -128,
                    "scale": 0.05902311950922012
                }
            }
        },
        "model.6.cv1.act": {
            "output": {
                "0": {
                    "bitwidth": 8,
                    "dtype": "int",
                    "is_symmetric": "True",
                    "max": 8.455777168273926,
                    "min": -8.522357940673828,
                    "offset": -128,
                    "scale": 0.06658092141151428
                }
            }
        },
        "model.6.cv1.conv": {
            "output": {
                "0": {
                    "bitwidth": 8,
                    "dtype": "int",
                    "is_symmetric": "True",
                    "max": 7.927291393280029,
                    "min": -7.989710807800293,
                    "offset": -128,
                    "scale": 0.06241961568593979
                }
            }
        },
        "model.6.cv2.act": {
            "output": {
                "0": {
                    "bitwidth": 8,
                    "dtype": "int",
                    "is_symmetric": "True",
                    "max": 6.5992631912231445,
                    "min": -6.651226043701172,
                    "offset": -128,
                    "scale": 0.051962703466415405
                }
            }
        },
        "model.6.cv2.conv": {
            "input": {
                "0": {
                    "bitwidth": 8,
                    "dtype": "int",
                    "is_symmetric": "True",
                    "max": 10.031018257141113,
                    "min": -10.110002517700195,
                    "offset": -128,
                    "scale": 0.07898439466953278
                }
            },
            "output": {
                "0": {
                    "bitwidth": 8,
                    "dtype": "int",
                    "is_symmetric": "True",
                    "max": 6.823058128356934,
                    "min": -6.8767828941345215,
                    "offset": -128,
                    "scale": 0.05372486636042595
                }
            }
        },
        "model.6.m.0.cv1.act": {
            "output": {
                "0": {
                    "bitwidth": 8,
                    "dtype": "int",
                    "is_symmetric": "True",
                    "max": 5.583992958068848,
                    "min": -5.6279616355896,
                    "offset": -128,
                    "scale": 0.04396845027804375
                }
            }
        },
        "model.6.m.0.cv1.conv": {
            "output": {
                "0": {
                    "bitwidth": 8,
                    "dtype": "int",
                    "is_symmetric": "True",
                    "max": 6.93168306350708,
                    "min": -6.986263275146484,
                    "offset": -128,
                    "scale": 0.05458018183708191
                }
            }
        },
        "model.6.m.0.cv2.act": {
            "output": {
                "0": {
                    "bitwidth": 8,
                    "dtype": "int",
                    "is_symmetric": "True",
                    "max": 5.6086931228637695,
                    "min": -5.65285587310791,
                    "offset": -128,
                    "scale": 0.04416293650865555
                }
            }
        },
        "model.6.m.0.cv2.conv": {
            "output": {
                "0": {
                    "bitwidth": 8,
                    "dtype": "int",
                    "is_symmetric": "True",
                    "max": 7.002462863922119,
                    "min": -7.057600498199463,
                    "offset": -128,
                    "scale": 0.055137503892183304
                }
            }
        },
        "model.6.m.1.cv1.act": {
            "output": {
                "0": {
                    "bitwidth": 8,
                    "dtype": "int",
                    "is_symmetric": "True",
                    "max": 6.541881561279297,
                    "min": -6.593392372131348,
                    "offset": -128,
                    "scale": 0.051510877907276154
                }
            }
        },
        "model.6.m.1.cv1.conv": {
            "input": {
                "0": {
                    "bitwidth": 8,
                    "dtype": "int",
                    "is_symmetric": "True",
                    "max": 7.046054840087891,
                    "min": -7.101535797119141,
                    "offset": -128,
                    "scale": 0.055480748414993286
                }
            },
            "output": {
                "0": {
                    "bitwidth": 8,
                    "dtype": "int",
                    "is_symmetric": "True",
                    "max": 6.919319152832031,
                    "min": -6.973802089691162,
                    "offset": -128,
                    "scale": 0.054482828825712204
                }
            }
        },
        "model.6.m.1.cv2.act": {
            "output": {
                "0": {
                    "bitwidth": 8,
                    "dtype": "int",
                    "is_symmetric": "True",
                    "max": 10.66431713104248,
                    "min": -10.74828815460205,
                    "offset": -128,
                    "scale": 0.08397100120782852
                }
            }
        },
        "model.6.m.1.cv2.conv": {
            "output": {
                "0": {
                    "bitwidth": 8,
                    "dtype": "int",
                    "is_symmetric": "True",
                    "max": 10.858213424682617,
                    "min": -10.943711280822754,
                    "offset": -128,
                    "scale": 0.08549774438142776
                }
            }
        },
        "model.7.act": {
            "output": {
                "0": {
                    "bitwidth": 8,
                    "dtype": "int",
                    "is_symmetric": "True",
                    "max": 6.585447311401367,
                    "min": -6.637301445007324,
                    "offset": -128,
                    "scale": 0.05185391753911972
                }
            }
        },
        "model.7.conv": {
            "output": {
                "0": {
                    "bitwidth": 8,
                    "dtype": "int",
                    "is_symmetric": "True",
                    "max": 7.259296894073486,
                    "min": -7.3164567947387695,
                    "offset": -128,
                    "scale": 0.05715981870889664
                }
            }
        },
        "model.8.cv1.act": {
            "output": {
                "0": {
                    "bitwidth": 8,
                    "dtype": "int",
                    "is_symmetric": "True",
                    "max": 8.425546646118164,
                    "min": -8.491889953613281,
                    "offset": -128,
                    "scale": 0.06634289026260376
                }
            }
        },
        "model.8.cv1.conv": {
            "output": {
                "0": {
                    "bitwidth": 8,
                    "dtype": "int",
                    "is_symmetric": "True",
                    "max": 9.830963134765625,
                    "min": -9.908371925354004,
                    "offset": -128,
                    "scale": 0.07740915566682816
                }
            }
        },
        "model.8.cv2.act": {
            "output": {
                "0": {
                    "bitwidth": 8,
                    "dtype": "int",
                    "is_symmetric": "True",
                    "max": 8.161615371704102,
                    "min": -8.225879669189453,
                    "offset": -128,
                    "scale": 0.0642646849155426
                }
            }
        },
        "model.8.cv2.conv": {
            "input": {
                "0": {
                    "bitwidth": 8,
                    "dtype": "int",
                    "is_symmetric": "True",
                    "max": 11.147870063781738,
                    "min": -11.235648155212402,
                    "offset": -128,
                    "scale": 0.0877785012125969
                }
            },
            "output": {
                "0": {
                    "bitwidth": 8,
                    "dtype": "int",
                    "is_symmetric": "True",
                    "max": 9.619050025939941,
                    "min": -9.694790840148926,
                    "offset": -128,
                    "scale": 0.07574055343866348
                }
            }
        },
        "model.8.m.0.cv1.act": {
            "output": {
                "0": {
                    "bitwidth": 8,
                    "dtype": "int",
                    "is_symmetric": "True",
                    "max": 8.269392013549805,
                    "min": -8.334505081176758,
                    "offset": -128,
                    "scale": 0.06511332094669342
                }
            }
        },
        "model.8.m.0.cv1.conv": {
            "output": {
                "0": {
                    "bitwidth": 8,
                    "dtype": "int",
                    "is_symmetric": "True",
                    "max": 8.860065460205078,
                    "min": -8.929829597473145,
                    "offset": -128,
                    "scale": 0.06976429373025894
                }
            }
        },
        "model.8.m.0.cv2.act": {
            "output": {
                "0": {
                    "bitwidth": 8,
                    "dtype": "int",
                    "is_symmetric": "True",
                    "max": 14.947479248046875,
                    "min": -15.065176010131836,
                    "offset": -128,
                    "scale": 0.11769668757915497
                }
            }
        },
        "model.8.m.0.cv2.conv": {
            "output": {
                "0": {
                    "bitwidth": 8,
                    "dtype": "int",
                    "is_symmetric": "True",
                    "max": 13.87004280090332,
                    "min": -13.979255676269531,
                    "offset": -128,
                    "scale": 0.10921293497085571
                }
            }
        },
        "model.9.cv1.conv": {
            "output": {
                "0": {
                    "bitwidth": 8,
                    "dtype": "int",
                    "is_symmetric": "True",
                    "max": 6.717218399047852,
                    "min": -6.7701096534729,
                    "offset": -128,
                    "scale": 0.052891481667757034
                }
            }
        },
        "model.9.cv2.act": {
            "output": {
                "0": {
                    "bitwidth": 8,
                    "dtype": "int",
                    "is_symmetric": "True",
                    "max": 8.178916931152344,
                    "min": -8.243317604064941,
                    "offset": -128,
                    "scale": 0.06440091878175735
                }
            }
        },
        "model.9.cv2.conv": {
            "input": {
                "0": {
                    "bitwidth": 8,
                    "dtype": "int",
                    "is_symmetric": "True",
                    "max": 8.989218711853027,
                    "min": -9.0600004196167,
                    "offset": -128,
                    "scale": 0.07078125327825546
                }
            },
            "output": {
                "0": {
                    "bitwidth": 8,
                    "dtype": "int",
                    "is_symmetric": "True",
                    "max": 7.633664131164551,
                    "min": -7.693771839141846,
                    "offset": -128,
                    "scale": 0.06010759249329567
                }
            }
        }
    },
    "excluded_layers": [],
    "param_encodings": {
        "model.0.conv.weight": [
            {
                "bitwidth": 8,
                "dtype": "int",
                "is_symmetric": "True",
                "max": 10.555045127868652,
                "min": -10.638155937194824,
                "offset": -128,
                "scale": 0.08311059325933456
            },
            {
                "bitwidth": 8,
                "dtype": "int",
                "is_symmetric": "True",
                "max": 6.365839004516602,
                "min": -6.415963649749756,
                "offset": -128,
                "scale": 0.05012471601366997
            },
            {
                "bitwidth": 8,
                "dtype": "int",
                "is_symmetric": "True",
                "max": 11.854606628417969,
                "min": -11.94795036315918,
                "offset": -128,
                "scale": 0.09334336221218109
            },
            {
                "bitwidth": 8,
                "dtype": "int",
                "is_symmetric": "True",
                "max": 26.196571350097656,
                "min": -26.402843475341797,
                "offset": -128,
                "scale": 0.2062722146511078
            },
            {
                "bitwidth": 8,
                "dtype": "int",
                "is_symmetric": "True",
                "max": 8.169275283813477,
                "min": -8.233600616455078,
                "offset": -128,
                "scale": 0.0643250048160553
            },
            {
                "bitwidth": 8,
                "dtype": "int",
                "is_symmetric": "True",
                "max": 5.499118804931641,
                "min": -5.542418956756592,
                "offset": -128,
                "scale": 0.04330014809966087
            },
            {
                "bitwidth": 8,
                "dtype": "int",
                "is_symmetric": "True",
                "max": 0.5414234399795532,
                "min": -0.5456866025924683,
                "offset": -128,
                "scale": 0.004263176582753658
            },
            {
                "bitwidth": 8,
                "dtype": "int",
                "is_symmetric": "True",
                "max": 16.019575119018555,
                "min": -16.145713806152344,
                "offset": -128,
                "scale": 0.12613838911056519
            },
            {
                "bitwidth": 8,
                "dtype": "int",
                "is_symmetric": "True",
                "max": 13.929780006408691,
                "min": -14.03946304321289,
                "offset": -128,
                "scale": 0.10968330502510071
            },
            {
                "bitwidth": 8,
                "dtype": "int",
                "is_symmetric": "True",
                "max": 5.796696662902832,
                "min": -5.842339992523193,
                "offset": -128,
                "scale": 0.04564328119158745
            },
            {
                "bitwidth": 8,
                "dtype": "int",
                "is_symmetric": "True",
                "max": 22.78007698059082,
                "min": -22.959447860717773,
                "offset": -128,
                "scale": 0.1793706864118576
            },
            {
                "bitwidth": 8,
                "dtype": "int",
                "is_symmetric": "True",
                "max": 7.548974990844727,
                "min": -7.608415603637695,
                "offset": -128,
                "scale": 0.059440746903419495
            },
            {
                "bitwidth": 8,
                "dtype": "int",
                "is_symmetric": "True",
                "max": 19.792545318603516,
                "min": -19.948392868041992,
                "offset": -128,
                "scale": 0.15584681928157806
            },
            {
                "bitwidth": 8,
                "dtype": "int",
                "is_symmetric": "True",
                "max": 5.1315107345581055,
                "min": -5.171916484832764,
                "offset": -128,
                "scale": 0.040405597537755966
            },
            {
                "bitwidth": 8,
                "dtype": "int",
                "is_symmetric": "True",
                "max": 2.5336475372314453,
                "min": -2.5535974502563477,
                "offset": -128,
                "scale": 0.019949980080127716
            },
            {
                "bitwidth": 8,
                "dtype": "int",
                "is_symmetric": "True",
                "max": 4.908111572265625,
                "min": -4.946758270263672,
                "offset": -128,
                "scale": 0.038646548986434937
            },
            {
                "bitwidth": 8,
                "dtype": "int",
                "is_symmetric": "True",
                "max": 3.4134182929992676,
                "min": -3.440295696258545,
                "offset": -128,
                "scale": 0.026877310127019882
            },
            {
                "bitwidth": 8,
                "dtype": "int",
                "is_symmetric": "True",
                "max": 16.54087257385254,
                "min": -16.67111587524414,
                "offset": -128,
                "scale": 0.13024309277534485
            },
            {
                "bitwidth": 8,
                "dtype": "int",
                "is_symmetric": "True",
                "max": 3.2358558177948,
                "min": -3.2613348960876465,
                "offset": -128,
                "scale": 0.025479178875684738
            },
            {
                "bitwidth": 8,
                "dtype": "int",
                "is_symmetric": "True",
                "max": 5.542945384979248,
                "min": -5.586590766906738,
                "offset": -128,
                "scale": 0.04364524036645889
            },
            {
                "bitwidth": 8,
                "dtype": "int",
                "is_symmetric": "True",
                "max": 17.81040382385254,
                "min": -17.95064353942871,
                "offset": -128,
                "scale": 0.1402394026517868
            },
            {
                "bitwidth": 8,
                "dtype": "int",
                "is_symmetric": "True",
                "max": 17.276220321655273,
                "min": -17.412254333496094,
                "offset": -128,
                "scale": 0.13603323698043823
            },
            {
                "bitwidth": 8,
                "dtype": "int",
                "is_symmetric": "True",
                "max": 23.533567428588867,
                "min": -23.718870162963867,
                "offset": -128,
                "scale": 0.1853036731481552
            },
            {
                "bitwidth": 8,
                "dtype": "int",
                "is_symmetric": "True",
                "max": 9.723734855651855,
                "min": -9.800299644470215,
                "offset": -128,
                "scale": 0.07656484097242355
            },
            {
                "bitwidth": 8,
                "dtype": "int",
                "is_symmetric": "True",
                "max": 13.209346771240234,
                "min": -13.31335735321045,
                "offset": -128,
                "scale": 0.10401060432195663
            },
            {
                "bitwidth": 8,
                "dtype": "int",
                "is_symmetric": "True",
                "max": 12.634243965148926,
                "min": -12.733726501464844,
                "offset": -128,
                "scale": 0.09948223829269409
            },
            {
                "bitwidth": 8,
                "dtype": "int",
                "is_symmetric": "True",
                "max": 7.812348365783691,
                "min": -7.8738627433776855,
                "offset": -128,
                "scale": 0.06151455268263817
            },
            {
                "bitwidth": 8,
                "dtype": "int",
                "is_symmetric": "True",
                "max": 12.425321578979492,
                "min": -12.52315902709961,
                "offset": -128,
                "scale": 0.0978371798992157
            },
            {
                "bitwidth": 8,
                "dtype": "int",
                "is_symmetric": "True",
                "max": 10.36850357055664,
                "min": -10.450145721435547,
                "offset": -128,
                "scale": 0.08164176344871521
            },
            {
                "bitwidth": 8,
                "dtype": "int",
                "is_symmetric": "True",
                "max": 7.166806697845459,
                "min": -7.223238468170166,
                "offset": -128,
                "scale": 0.05643155053257942
            },
            {
                "bitwidth": 8,
                "dtype": "int",
                "is_symmetric": "True",
                "max": 19.538127899169922,
                "min": -19.691970825195312,
                "offset": -128,
                "scale": 0.15384352207183838
            },
            {
                "bitwidth": 8,
                "dtype": "int",
                "is_symmetric": "True",
                "max": 19.155141830444336,
                "min": -19.30596923828125,
                "offset": -128,
                "scale": 0.15082788467407227
            }
        ],
        "model.1.conv.weight": [
            {
                "bitwidth": 8,
                "dtype": "int",
                "is_symmetric": "True",
                "max": 0.4478129744529724,
                "min": -0.45133906602859497,
                "offset": -128,
                "scale": 0.003526086453348398
            },
            {
                "bitwidth": 8,
                "dtype": "int",
                "is_symmetric": "True",
                "max": 0.17347054183483124,
                "min": -0.17483645677566528,
                "offset": -128,
                "scale": 0.001365909818559885
            },
            {
                "bitwidth": 8,
                "dtype": "int",
                "is_symmetric": "True",
                "max": 0.43104955554008484,
                "min": -0.4344436526298523,
                "offset": -128,
                "scale": 0.003394091036170721
            },
            {
                "bitwidth": 8,
                "dtype": "int",
                "is_symmetric": "True",
                "max": 0.28979799151420593,
                "min": -0.2920798659324646,
                "offset": -128,
                "scale": 0.0022818739525973797
            },
            {
                "bitwidth": 8,
                "dtype": "int",
                "is_symmetric": "True",
                "max": 0.33542346954345703,
                "min": -0.33806461095809937,
                "offset": -128,
                "scale": 0.0026411297731101513
            },
            {
                "bitwidth": 8,
                "dtype": "int",
                "is_symmetric": "True",
                "max": 0.4480798840522766,
                "min": -0.4516080617904663,
                "offset": -128,
                "scale": 0.003528187982738018
            },
            {
                "bitwidth": 8,
                "dtype": "int",
                "is_symmetric": "True",
                "max": 0.6217572093009949,
                "min": -0.6266529560089111,
                "offset": -128,
                "scale": 0.004895726218819618
            },
            {
                "bitwidth": 8,
                "dtype": "int",
                "is_symmetric": "True",
                "max": 0.5340871214866638,
                "min": -0.5382925271987915,
                "offset": -128,
                "scale": 0.004205410368740559
            },
            {
                "bitwidth": 8,
                "dtype": "int",
                "is_symmetric": "True",
                "max": 0.5109235644340515,
                "min": -0.5149465799331665,
                "offset": -128,
                "scale": 0.004023020155727863
            },
            {
                "bitwidth": 8,
                "dtype": "int",
                "is_symmetric": "True",
                "max": 0.2878616452217102,
                "min": -0.29012826085090637,
                "offset": -128,
                "scale": 0.002266627037897706
            },
            {
                "bitwidth": 8,
                "dtype": "int",
                "is_symmetric": "True",
                "max": 0.4365938901901245,
                "min": -0.44003164768218994,
                "offset": -128,
                "scale": 0.003437747247517109
            },
            {
                "bitwidth": 8,
                "dtype": "int",
                "is_symmetric": "True",
                "max": 0.7415232062339783,
                "min": -0.747361958026886,
                "offset": -128,
                "scale": 0.005838765297085047
            },
            {
                "bitwidth": 8,
                "dtype": "int",
                "is_symmetric": "True",
                "max": 0.19497117400169373,
                "min": -0.19650638103485107,
                "offset": -128,
                "scale": 0.001535206101834774
            },
            {
                "bitwidth": 8,
                "dtype": "int",
                "is_symmetric": "True",
                "max": 0.3719515800476074,
                "min": -0.3748803436756134,
                "offset": -128,
                "scale": 0.0029287526849657297
            },
            {
                "bitwidth": 8,
                "dtype": "int",
                "is_symmetric": "True",
                "max": 0.5680043697357178,
                "min": -0.572476863861084,
                "offset": -128,
                "scale": 0.004472475498914719
            },
            {
                "bitwidth": 8,
                "dtype": "int",
                "is_symmetric": "True",
                "max": 0.17633786797523499,
                "min": -0.1777263581752777,
                "offset": -128,
                "scale": 0.0013884871732443571
            },
            {
                "bitwidth": 8,
                "dtype": "int",
                "is_symmetric": "True",
                "max": 0.4184797704219818,
                "min": -0.42177489399909973,
                "offset": -128,
                "scale": 0.0032951163593679667
            },
            {
                "bitwidth": 8,
                "dtype": "int",
                "is_symmetric": "True",
                "max": 0.6132615804672241,
                "min": -0.6180903911590576,
                "offset": -128,
                "scale": 0.004828831180930138
            },
            {
                "bitwidth": 8,
                "dtype": "int",
                "is_symmetric": "True",
                "max": 0.24947002530097961,
                "min": -0.2514343559741974,
                "offset": -128,
                "scale": 0.001964330906048417
            },
            {
                "bitwidth": 8,
                "dtype": "int",
                "is_symmetric": "True",
                "max": 0.3919431269168854,
                "min": -0.39502930641174316,
                "offset": -128,
                "scale": 0.0030861664563417435
            },
            {
                "bitwidth": 8,
                "dtype": "int",
                "is_symmetric": "True",
                "max": 0.36536502838134766,
                "min": -0.36824190616607666,
                "offset": -128,
                "scale": 0.002876889891922474
            },
            {
                "bitwidth": 8,
                "dtype": "int",
                "is_symmetric": "True",
                "max": 0.18189017474651337,
                "min": -0.18332238495349884,
                "offset": -128,
                "scale": 0.0014322061324492097
            },
            {
                "bitwidth": 8,
                "dtype": "int",
                "is_symmetric": "True",
                "max": 0.47172459959983826,
                "min": -0.4754389524459839,
                "offset": -128,
                "scale": 0.003714366815984249
            },
            {
                "bitwidth": 8,
                "dtype": "int",
                "is_symmetric": "True",
                "max": 0.4619484841823578,
                "min": -0.4655858874320984,
                "offset": -128,
                "scale": 0.0036373897455632687
            },
            {
                "bitwidth": 8,
                "dtype": "int",
                "is_symmetric": "True",
                "max": 0.24878592789173126,
                "min": -0.25074487924575806,
                "offset": -128,
                "scale": 0.001958944369107485
            },
            {
                "bitwidth": 8,
                "dtype": "int",
                "is_symmetric": "True",
                "max": 0.4233052134513855,
                "min": -0.42663833498954773,
                "offset": -128,
                "scale": 0.0033331119921058416
            },
            {
                "bitwidth": 8,
                "dtype": "int",
                "is_symmetric": "True",
                "max": 0.29728105664253235,
                "min": -0.2996218502521515,
                "offset": -128,
                "scale": 0.0023407957050949335
            },
            {
                "bitwidth": 8,
                "dtype": "int",
                "is_symmetric": "True",
                "max": 0.6597061157226562,
                "min": -0.6649006605148315,
                "offset": -128,
                "scale": 0.005194536410272121
            },
            {
                "bitwidth": 8,
                "dtype": "int",
                "is_symmetric": "True",
                "max": 0.47137391567230225,
                "min": -0.4750855267047882,
                "offset": -128,
                "scale": 0.003711605677381158
            },
            {
                "bitwidth": 8,
                "dtype": "int",
                "is_symmetric": "True",
                "max": 0.4031226933002472,
                "min": -0.40629687905311584,
                "offset": -128,
                "scale": 0.0031741943676024675
            },
            {
                "bitwidth": 8,
                "dtype": "int",
                "is_symmetric": "True",
                "max": 0.46925047039985657,
                "min": -0.47294536232948303,
                "offset": -128,
                "scale": 0.003694885643199086
            },
            {
                "bitwidth": 8,
                "dtype": "int",
                "is_symmetric": "True",
                "max": 0.28030896186828613,
                "min": -0.28251612186431885,
                "offset": -128,
                "scale": 0.002207157202064991
            },
            {
                "bitwidth": 8,
                "dtype": "int",
                "is_symmetric": "True",
                "max": 0.4318261444568634,
                "min": -0.43522635102272034,
                "offset": -128,
                "scale": 0.0034002058673650026
            },
            {
                "bitwidth": 8,
                "dtype": "int",
                "is_symmetric": "True",
                "max": 0.6035326719284058,
                "min": -0.6082848906517029,
                "offset": -128,
                "scale": 0.004752225708216429
            },
            {
                "bitwidth": 8,
                "dtype": "int",
                "is_symmetric": "True",
                "max": 1.2379002571105957,
                "min": -1.2476475238800049,
                "offset": -128,
                "scale": 0.009747246280312538
            },
            {
                "bitwidth": 8,
                "dtype": "int",
                "is_symmetric": "True",
                "max": 0.576227068901062,
                "min": -0.5807642936706543,
                "offset": -128,
                "scale": 0.004537221044301987
            },
            {
                "bitwidth": 8,
                "dtype": "int",
                "is_symmetric": "True",
                "max": 0.2524959146976471,
                "min": -0.25448405742645264,
                "offset": -128,
                "scale": 0.0019881566986441612
            },
            {
                "bitwidth": 8,
                "dtype": "int",
                "is_symmetric": "True",
                "max": 1.0713138580322266,
                "min": -1.079749345779419,
                "offset": -128,
                "scale": 0.00843554176390171
            },
            {
                "bitwidth": 8,
                "dtype": "int",
                "is_symmetric": "True",
                "max": 0.26338648796081543,
                "min": -0.26546040177345276,
                "offset": -128,
                "scale": 0.0020739093888550997
            },
            {
                "bitwidth": 8,
                "dtype": "int",
                "is_symmetric": "True",
                "max": 0.30133137106895447,
                "min": -0.30370405316352844,
                "offset": -128,
                "scale": 0.002372687915340066
            },
            {
                "bitwidth": 8,
                "dtype": "int",
                "is_symmetric": "True",
                "max": 0.3165765702724457,
                "min": -0.3190692961215973,
                "offset": -128,
                "scale": 0.002492728875949979
            },
            {
                "bitwidth": 8,
                "dtype": "int",
                "is_symmetric": "True",
                "max": 0.2594626247882843,
                "min": -0.2615056335926056,
                "offset": -128,
                "scale": 0.002043012762442231
            },
            {
                "bitwidth": 8,
                "dtype": "int",
                "is_symmetric": "True",
                "max": 0.4003599286079407,
                "min": -0.4035123586654663,
                "offset": -128,
                "scale": 0.0031524403020739555
            },
            {
                "bitwidth": 8,
                "dtype": "int",
                "is_symmetric": "True",
                "max": 0.6358854174613953,
                "min": -0.6408923864364624,
                "offset": -128,
                "scale": 0.0050069717690348625
            },
            {
                "bitwidth": 8,
                "dtype": "int",
                "is_symmetric": "True",
                "max": 0.41783785820007324,
                "min": -0.42112791538238525,
                "offset": -128,
                "scale": 0.003290061838924885
            },
            {
                "bitwidth": 8,
                "dtype": "int",
                "is_symmetric": "True",
                "max": 0.3112063705921173,
                "min": -0.3136568069458008,
                "offset": -128,
                "scale": 0.0024504438042640686
            },
            {
                "bitwidth": 8,
                "dtype": "int",
                "is_symmetric": "True",
                "max": 0.23934510350227356,
                "min": -0.24122971296310425,
                "offset": -128,
                "scale": 0.001884607132524252
            },
            {
                "bitwidth": 8,
                "dtype": "int",
                "is_symmetric": "True",
                "max": 0.789436399936676,
                "min": -0.795652449131012,
                "offset": -128,
                "scale": 0.006216034758836031
            },
            {
                "bitwidth": 8,
                "dtype": "int",
                "is_symmetric": "True",
                "max": 0.23119506239891052,
                "min": -0.2330154925584793,
                "offset": -128,
                "scale": 0.0018204335356131196
            },
            {
                "bitwidth": 8,
                "dtype": "int",
                "is_symmetric": "True",
                "max": 0.7013628482818604,
                "min": -0.7068853974342346,
                "offset": -128,
                "scale": 0.005522542167454958
            },
            {
                "bitwidth": 8,
                "dtype": "int",
                "is_symmetric": "True",
                "max": 0.34544751048088074,
                "min": -0.3481675684452057,
                "offset": -128,
                "scale": 0.0027200591284781694
            },
            {
                "bitwidth": 8,
                "dtype": "int",
                "is_symmetric": "True",
                "max": 0.5636910796165466,
                "min": -0.5681295990943909,
                "offset": -128,
                "scale": 0.004438512492924929
            },
            {
                "bitwidth": 8,
                "dtype": "int",
                "is_symmetric": "True",
                "max": 0.5401496887207031,
                "min": -0.5444028377532959,
                "offset": -128,
                "scale": 0.004253147169947624
            },
            {
                "bitwidth": 8,
                "dtype": "int",
                "is_symmetric": "True",
                "max": 0.5702076554298401,
                "min": -0.5746974945068359,
                "offset": -128,
                "scale": 0.004489824175834656
            },
            {
                "bitwidth": 8,
                "dtype": "int",
                "is_symmetric": "True",
                "max": 0.7801229357719421,
                "min": -0.7862656116485596,
                "offset": -128,
                "scale": 0.006142700091004372
            },
            {
                "bitwidth": 8,
                "dtype": "int",
                "is_symmetric": "True",
                "max": 0.3254052996635437,
                "min": -0.3279675543308258,
                "offset": -128,
                "scale": 0.0025622465182095766
            },
            {
                "bitwidth": 8,
                "dtype": "int",
                "is_symmetric": "True",
                "max": 0.3923168182373047,
                "min": -0.39540591835975647,
                "offset": -128,
                "scale": 0.0030891087371855974
            },
            {
                "bitwidth": 8,
                "dtype": "int",
                "is_symmetric": "True",
                "max": 0.43682214617729187,
                "min": -0.44026169180870056,
                "offset": -128,
                "scale": 0.003439544467255473
            },
            {
                "bitwidth": 8,
                "dtype": "int",
                "is_symmetric": "True",
                "max": 0.35457292199134827,
                "min": -0.35736483335494995,
                "offset": -128,
                "scale": 0.0027919127605855465
            },
            {
                "bitwidth": 8,
                "dtype": "int",
                "is_symmetric": "True",
                "max": 0.45421668887138367,
                "min": -0.4577932059764862,
                "offset": -128,
                "scale": 0.0035765094216912985
            },
            {
                "bitwidth": 8,
                "dtype": "int",
                "is_symmetric": "True",
                "max": 1.0985435247421265,
                "min": -1.1071934700012207,
                "offset": -128,
                "scale": 0.008649948984384537
            },
            {
                "bitwidth": 8,
                "dtype": "int",
                "is_symmetric": "True",
                "max": 0.31026482582092285,
                "min": -0.3127078413963318,
                "offset": -128,
                "scale": 0.002443030010908842
            },
            {
                "bitwidth": 8,
                "dtype": "int",
                "is_symmetric": "True",
                "max": 0.37977516651153564,
                "min": -0.382765531539917,
                "offset": -128,
                "scale": 0.0029903557151556015
            },
            {
                "bitwidth": 8,
                "dtype": "int",
                "is_symmetric": "True",
                "max": 0.30815204977989197,
                "min": -0.31057843565940857,
                "offset": -128,
                "scale": 0.0024263940285891294
            }
        ],
        "model.12.cv1.conv.weight": [
            {
                "bitwidth": 8,
                "dtype": "int",
                "is_symmetric": "True",
                "max": 0.3929263949394226,
                "min": -0.3960202932357788,
                "offset": -128,
                "scale": 0.003093908540904522
            },
            {
                "bitwidth": 8,
                "dtype": "int",
                "is_symmetric": "True",
                "max": 0.3348366916179657,
                "min": -0.33747321367263794,
                "offset": -128,
                "scale": 0.002636509481817484
            },
            {
                "bitwidth": 8,
                "dtype": "int",
                "is_symmetric": "True",
                "max": 0.5129327178001404,
                "min": -0.5169715285301208,
                "offset": -128,
                "scale": 0.004038840066641569
            },
            {
                "bitwidth": 8,
                "dtype": "int",
                "is_symmetric": "True",
                "max": 0.48064056038856506,
                "min": -0.4844251275062561,
                "offset": -128,
                "scale": 0.003784571308642626
            },
            {
                "bitwidth": 8,
                "dtype": "int",
                "is_symmetric": "True",
                "max": 0.4800715148448944,
                "min": -0.4838516116142273,
                "offset": -128,
                "scale": 0.0037800907157361507
            },
            {
                "bitwidth": 8,
                "dtype": "int",
                "is_symmetric": "True",
                "max": 0.35202959179878235,
                "min": -0.3548014760017395,
                "offset": -128,
                "scale": 0.00277188653126359
            },
            {
                "bitwidth": 8,
                "dtype": "int",
                "is_symmetric": "True",
                "max": 0.36834821105003357,
                "min": -0.37124860286712646,
                "offset": -128,
                "scale": 0.0029003797098994255
            },
            {
                "bitwidth": 8,
                "dtype": "int",
                "is_symmetric": "True",
                "max": 0.32553747296333313,
                "min": -0.3281007707118988,
                "offset": -128,
                "scale": 0.0025632872711867094
            },
            {
                "bitwidth": 8,
                "dtype": "int",
                "is_symmetric": "True",
                "max": 0.40927866101264954,
                "min": -0.41250133514404297,
                "offset": -128,
                "scale": 0.0032226666808128357
            },
            {
                "bitwidth": 8,
                "dtype": "int",
                "is_symmetric": "True",
                "max": 0.6091083288192749,
                "min": -0.6139044761657715,
                "offset": -128,
                "scale": 0.00479612872004509
            },
            {
                "bitwidth": 8,
                "dtype": "int",
                "is_symmetric": "True",
                "max": 0.4918879270553589,
                "min": -0.49576106667518616,
                "offset": -128,
                "scale": 0.003873133333399892
            },
            {
                "bitwidth": 8,
                "dtype": "int",
                "is_symmetric": "True",
                "max": 0.5497341752052307,
                "min": -0.5540627837181091,
                "offset": -128,
                "scale": 0.004328615497797728
            },
            {
                "bitwidth": 8,
                "dtype": "int",
                "is_symmetric": "True",
                "max": 0.43159422278404236,
                "min": -0.43499261140823364,
                "offset": -128,
                "scale": 0.0033983797766268253
            },
            {
                "bitwidth": 8,
                "dtype": "int",
                "is_symmetric": "True",
                "max": 0.3188406229019165,
                "min": -0.32135117053985596,
                "offset": -128,
                "scale": 0.0025105560198426247
            },
            {
                "bitwidth": 8,
                "dtype": "int",
                "is_symmetric": "True",
                "max": 0.3352954685688019,
                "min": -0.33793559670448303,
                "offset": -128,
                "scale": 0.0026401218492537737
            },
            {
                "bitwidth": 8,
                "dtype": "int",
                "is_symmetric": "True",
                "max": 0.297569215297699,
                "min": -0.2999122738838196,
                "offset": -128,
                "scale": 0.0023430646397173405
            },
            {
                "bitwidth": 8,
                "dtype": "int",
                "is_symmetric": "True",
                "max": 0.6369515061378479,
                "min": -0.6419668793678284,
                "offset": -128,
                "scale": 0.005015366245061159
            },
            {
                "bitwidth": 8,
                "dtype": "int",
                "is_symmetric": "True",
                "max": 0.41635221242904663,
                "min": -0.41963058710098267,
                "offset": -128,
                "scale": 0.003278363961726427
            },
            {
                "bitwidth": 8,
                "dtype": "int",
                "is_symmetric": "True",
                "max": 0.5873737335205078,
                "min": -0.5919986963272095,
                "offset": -128,
                "scale": 0.004624989815056324
            },
            {
                "bitwidth": 8,
                "dtype": "int",
                "is_symmetric": "True",
                "max": 0.38710057735443115,
                "min": -0.3901486098766327,
                "offset": -128,
                "scale": 0.003048036014661193
            },
            {
                "bitwidth": 8,
                "dtype": "int",
                "is_symmetric": "True",
                "max": 0.5238115191459656,
                "min": -0.5279360413551331,
                "offset": -128,
                "scale": 0.004124500323086977
            },
            {
                "bitwidth": 8,
                "dtype": "int",
                "is_symmetric": "True",
                "max": 0.49656206369400024,
                "min": -0.5004720091819763,
                "offset": -128,
                "scale": 0.00390993757173419
            },
            {
                "bitwidth": 8,
                "dtype": "int",
                "is_symmetric": "True",
                "max": 0.23435921967029572,
                "min": -0.23620456457138062,
                "offset": -128,
                "scale": 0.001845348160713911
            },
            {
                "bitwidth": 8,
                "dtype": "int",
                "is_symmetric": "True",
                "max": 0.3413121998310089,
                "min": -0.3439996838569641,
                "offset": -128,
                "scale": 0.002687497530132532
            },
            {
                "bitwidth": 8,
                "dtype": "int",
                "is_symmetric": "True",
                "max": 0.5076767802238464,
                "min": -0.5116742253303528,
                "offset": -128,
                "scale": 0.003997454885393381
            },
            {
                "bitwidth": 8,
                "dtype": "int",
                "is_symmetric": "True",
                "max": 0.3604862689971924,
                "min": -0.36332473158836365,
                "offset": -128,
                "scale": 0.002838474465534091
            },
            {
                "bitwidth": 8,
                "dtype": "int",
                "is_symmetric": "True",
                "max": 0.5094559788703918,
                "min": -0.5134674310684204,
                "offset": -128,
                "scale": 0.0040114643052220345
            },
            {
                "bitwidth": 8,
                "dtype": "int",
                "is_symmetric": "True",
                "max": 0.37742820382118225,
                "min": -0.3804000914096832,
                "offset": -128,
                "scale": 0.00297187571413815
            },
            {
                "bitwidth": 8,
                "dtype": "int",
                "is_symmetric": "True",
                "max": 0.4546463191509247,
                "min": -0.45822620391845703,
                "offset": -128,
                "scale": 0.0035798922181129456
            },
            {
                "bitwidth": 8,
                "dtype": "int",
                "is_symmetric": "True",
                "max": 0.38167285919189453,
                "min": -0.3846781551837921,
                "offset": -128,
                "scale": 0.003005298087373376
            },
            {
                "bitwidth": 8,
                "dtype": "int",
                "is_symmetric": "True",
                "max": 0.9002580046653748,
                "min": -0.9073466658592224,
                "offset": -128,
                "scale": 0.007088645827025175
            },
            {
                "bitwidth": 8,
                "dtype": "int",
                "is_symmetric": "True",
                "max": 0.40783077478408813,
                "min": -0.4110420346260071,
                "offset": -128,
                "scale": 0.0032112658955156803
            },
            {
                "bitwidth": 8,
                "dtype": "int",
                "is_symmetric": "True",
                "max": 0.4281940460205078,
                "min": -0.43156564235687256,
                "offset": -128,
                "scale": 0.003371606580913067
            },
            {
                "bitwidth": 8,
                "dtype": "int",
                "is_symmetric": "True",
                "max": 0.4751620292663574,
                "min": -0.47890347242355347,
                "offset": -128,
                "scale": 0.0037414333783090115
            },
            {
                "bitwidth": 8,
                "dtype": "int",
                "is_symmetric": "True",
                "max": 0.45321711897850037,
                "min": -0.45678576827049255,
                "offset": -128,
                "scale": 0.003568638814613223
            },
            {
                "bitwidth": 8,
                "dtype": "int",
                "is_symmetric": "True",
                "max": 0.46265438199043274,
                "min": -0.46629732847213745,
                "offset": -128,
                "scale": 0.003642947878688574
            },
            {
                "bitwidth": 8,
                "dtype": "int",
                "is_symmetric": "True",
                "max": 0.34019625186920166,
                "min": -0.3428749740123749,
                "offset": -128,
                "scale": 0.0026787107344716787
            },
            {
                "bitwidth": 8,
                "dtype": "int",
                "is_symmetric": "True",
                "max": 0.7806535363197327,
                "min": -0.7868004441261292,
                "offset": -128,
                "scale": 0.006146878469735384
            },
            {
                "bitwidth": 8,
                "dtype": "int",
                "is_symmetric": "True",
                "max": 0.3560614585876465,
                "min": -0.35886508226394653,
                "offset": -128,
                "scale": 0.0028036334551870823
            },
            {
                "bitwidth": 8,
                "dtype": "int",
                "is_symmetric": "True",
                "max": 0.37099963426589966,
                "min": -0.37392088770866394,
                "offset": -128,
                "scale": 0.002921256935223937
            },
            {
                "bitwidth": 8,
                "dtype": "int",
                "is_symmetric": "True",
                "max": 0.37372779846191406,
                "min": -0.3766705393791199,
                "offset": -128,
                "scale": 0.002942738588899374
            },
            {
                "bitwidth": 8,
                "dtype": "int",
                "is_symmetric": "True",
                "max": 0.5942884683609009,
                "min": -0.5989679098129272,
                "offset": -128,
                "scale": 0.004679436795413494
            },
            {
                "bitwidth": 8,
                "dtype": "int",
                "is_symmetric": "True",
                "max": 0.2840593159198761,
                "min": -0.286296010017395,
                "offset": -128,
                "scale": 0.0022366875782608986
            },
            {
                "bitwidth": 8,
                "dtype": "int",
                "is_symmetric": "True",
                "max": 0.48713383078575134,
                "min": -0.49096953868865967,
                "offset": -128,
                "scale": 0.0038356995210051537
            },
            {
                "bitwidth": 8,
                "dtype": "int",
                "is_symmetric": "True",
                "max": 0.6540344953536987,
                "min": -0.6591843962669373,
                "offset": -128,
                "scale": 0.005149878095835447
            },
            {
                "bitwidth": 8,
                "dtype": "int",
                "is_symmetric": "True",
                "max": 0.35783031582832336,
                "min": -0.36064788699150085,
                "offset": -128,
                "scale": 0.0028175616171211004
            },
            {
                "bitwidth": 8,
                "dtype": "int",
                "is_symmetric": "True",
                "max": 0.44842687249183655,
                "min": -0.4519577920436859,
                "offset": -128,
                "scale": 0.003530920250341296
            },
            {
                "bitwidth": 8,
                "dtype": "int",
                "is_symmetric": "True",
                "max": 0.4167608916759491,
                "min": -0.420042484998703,
                "offset": -128,
                "scale": 0.003281581914052367
            },
            {
                "bitwidth": 8,
                "dtype": "int",
                "is_symmetric": "True",
                "max": 0.4337891936302185,
                "min": -0.43720486760139465,
                "offset": -128,
                "scale": 0.0034156630281358957
            },
            {
                "bitwidth": 8,
                "dtype": "int",
                "is_symmetric": "True",
                "max": 0.310517281293869,
                "min": -0.31296229362487793,
                "offset": -128,
                "scale": 0.002445017918944359
            },
            {
                "bitwidth": 8,
                "dtype": "int",
                "is_symmetric": "True",
                "max": 0.4877761900424957,
